{
  "version": "1.0",
  "truncation": null,
  "padding": null,
  "added_tokens": [
    {
      "id": 0,
      "content": "[UNK]",
      "single_word": false,
      "lstrip": false,
      "rstrip": false,
      "normalized": false,
      "special": true
    },
    {
      "id": 1,
      "content": "[CLS]",
      "single_word": false,
      "lstrip": false,
      "rstrip": false,
      "normalized": false,
      "special": true
    },
    {
      "id": 2,
      "content": "[SEP]",
      "single_word": false,
      "lstrip": false,
      "rstrip": false,
      "normalized": false,
      "special": true
    },
    {
      "id": 3,
      "content": "[PAD]",
      "single_word": false,
      "lstrip": false,
      "rstrip": false,
      "normalized": false,
      "special": true
    },
    {
      "id": 4,
      "content": "[MASK]",
      "single_word": false,
      "lstrip": false,
      "rstrip": false,
      "normalized": false,
      "special": true
    },
    {
      "id": 5,
      "content": "[start]",
      "single_word": false,
      "lstrip": false,
      "rstrip": false,
      "normalized": false,
      "special": true
    },
    {
      "id": 6,
      "content": "[end]",
      "single_word": false,
      "lstrip": false,
      "rstrip": false,
      "normalized": false,
      "special": true
    }
  ],
  "normalizer": null,
  "pre_tokenizer": {
    "type": "Whitespace"
  },
  "post_processor": null,
  "decoder": null,
  "model": {
    "type": "BPE",
    "dropout": null,
    "unk_token": "[UNK]",
    "continuing_subword_prefix": null,
    "end_of_word_suffix": null,
    "fuse_unk": false,
    "byte_fallback": false,
    "vocab": {
      "[UNK]": 0,
      "[CLS]": 1,
      "[SEP]": 2,
      "[PAD]": 3,
      "[MASK]": 4,
      "[start]": 5,
      "[end]": 6,
      ")": 7,
      "-": 8,
      "ঁ": 9,
      "ং": 10,
      "ঃ": 11,
      "অ": 12,
      "আ": 13,
      "ই": 14,
      "ঈ": 15,
      "উ": 16,
      "ঊ": 17,
      "ঋ": 18,
      "এ": 19,
      "ঐ": 20,
      "ও": 21,
      "ঔ": 22,
      "ক": 23,
      "খ": 24,
      "গ": 25,
      "ঘ": 26,
      "ঙ": 27,
      "চ": 28,
      "ছ": 29,
      "জ": 30,
      "ঝ": 31,
      "ঞ": 32,
      "ট": 33,
      "ঠ": 34,
      "ড": 35,
      "ঢ": 36,
      "ণ": 37,
      "ত": 38,
      "থ": 39,
      "দ": 40,
      "ধ": 41,
      "ন": 42,
      "প": 43,
      "ফ": 44,
      "ব": 45,
      "ভ": 46,
      "ম": 47,
      "য": 48,
      "র": 49,
      "ল": 50,
      "শ": 51,
      "ষ": 52,
      "স": 53,
      "হ": 54,
      "়": 55,
      "া": 56,
      "ি": 57,
      "ী": 58,
      "ু": 59,
      "ূ": 60,
      "ৃ": 61,
      "ৄ": 62,
      "ে": 63,
      "ৈ": 64,
      "ো": 65,
      "ৌ": 66,
      "্": 67,
      "ৎ": 68,
      "ড়": 69,
      "ঢ়": 70,
      "য়": 71,
      "১": 72,
      "২": 73,
      "৩": 74,
      "৪": 75,
      "৬": 76,
      "ার": 77,
      "ের": 78,
      "্র": 79,
      "কে": 80,
      "্য": 81,
      "ান": 82,
      "্ত": 83,
      "কা": 84,
      "টা": 85,
      "টি": 86,
      "তে": 87,
      "র্": 88,
      "বা": 89,
      "তা": 90,
      "বি": 91,
      "রা": 92,
      "লা": 93,
      "অন": 94,
      "ক্": 95,
      "লে": 96,
      "ক্ষ": 97,
      "না": 98,
      "ছি": 99,
      "তি": 100,
      "নি": 101,
      "য়া": 102,
      "বে": 103,
      "লি": 104,
      "পা": 105,
      "ন্": 106,
      "প্র": 107,
      "কার": 108,
      "মা": 109,
      "ভা": 110,
      "দের": 111,
      "স্": 112,
      "লো": 113,
      "াই": 114,
      "চ্": 115,
      "রি": 116,
      "ত্": 117,
      "গু": 118,
      "ত্র": 119,
      "সা": 120,
      "্যা": 121,
      "ড়": 122,
      "দে": 123,
      "দা": 124,
      "দ্": 125,
      "ভি": 126,
      "ষ্": 127,
      "অনু": 128,
      "চি": 129,
      "য়ে": 130,
      "মি": 131,
      "চা": 132,
      "ছে": 133,
      "গা": 134,
      "কু": 135,
      "জা": 136,
      "হা": 137,
      "ঙ্": 138,
      "নে": 139,
      "দি": 140,
      "কর": 141,
      "স্ত": 142,
      "অপ": 143,
      "উপ": 144,
      "খা": 145,
      "শি": 146,
      "তার": 147,
      "ড়া": 148,
      "জ্": 149,
      "ুর": 150,
      "ীর": 151,
      "অভি": 152,
      "শা": 153,
      "থা": 154,
      "ম্": 155,
      "ত্ত": 156,
      "কি": 157,
      "অব": 158,
      "ক্ত": 159,
      "ন্ত": 160,
      "গ্র": 161,
      "মান": 162,
      "ছা": 163,
      "ত্ম": 164,
      "মে": 165,
      "বর": 166,
      "পি": 167,
      "গুলো": 168,
      "নের": 169,
      "ন্দ": 170,
      "ানো": 171,
      "চ্ছি": 172,
      "িক": 173,
      "োগ": 174,
      "ংশ": 175,
      "আত্ম": 176,
      "অধ": 177,
      "জি": 178,
      "কাল": 179,
      "কারী": 180,
      "এক": 181,
      "ঙ্গ": 182,
      "হি": 183,
      "কর্": 184,
      "মু": 185,
      "বার": 186,
      "রে": 187,
      "সে": 188,
      "নী": 189,
      "তু": 190,
      "ল্": 191,
      "সি": 192,
      "দ্ধ": 193,
      "বু": 194,
      "ণ্": 195,
      "জ্ঞ": 196,
      "কের": 197,
      "যা": 198,
      "জন": 199,
      "ভাবে": 200,
      "রু": 201,
      "শ্": 202,
      "বাস": 203,
      "লের": 204,
      "চার": 205,
      "পে": 206,
      "সহ": 207,
      "ঞ্": 208,
      "দু": 209,
      "পরি": 210,
      "ীন": 211,
      "যোগ": 212,
      "স্থ": 213,
      "লাম": 214,
      "ব্য": 215,
      "লু": 216,
      "সং": 217,
      "লেন": 218,
      "খে": 219,
      "ওয়া": 220,
      "দার": 221,
      "কো": 222,
      "বাদ": 223,
      "ক্র": 224,
      "ডা": 225,
      "পর": 226,
      "অন্ত": 227,
      "হার": 228,
      "ত্য": 229,
      "পু": 230,
      "ান্ত": 231,
      "কর্ম": 232,
      "কৃ": 233,
      "িত": 234,
      "প্রা": 235,
      "ন্ত্র": 236,
      "কাঁ": 237,
      "সু": 238,
      "ূর্": 239,
      "েই": 240,
      "ষ্ট": 241,
      "দেশ": 242,
      "অংশ": 243,
      "রণ": 244,
      "ঘা": 245,
      "শু": 246,
      "গো": 247,
      "উদ্": 248,
      "ধা": 249,
      "ড়ি": 250,
      "শ্র": 251,
      "অক্ষ": 252,
      "উত্ত": 253,
      "চে": 254,
      "কাটা": 255,
      "টে": 256,
      "বো": 257,
      "য়ার": 258,
      "চু": 259,
      "মন": 260,
      "লই": 261,
      "গি": 262,
      "মার": 263,
      "ণ্ড": 264,
      "টার": 265,
      "তো": 266,
      "কেই": 267,
      "ানা": 268,
      "ড়ি": 269,
      "টু": 270,
      "ানি": 271,
      "গ্রহ": 272,
      "ক্তি": 273,
      "খি": 274,
      "ছিল": 275,
      "তর": 276,
      "দ্য": 277,
      "তেই": 278,
      "উত্": 279,
      "ষ্টি": 280,
      "অর্": 281,
      "করা": 282,
      "নার": 283,
      "আর": 284,
      "শো": 285,
      "ীয়": 286,
      "ধার": 287,
      "প্ত": 288,
      "লকে": 289,
      "শে": 290,
      "সার": 291,
      "তায়": 292,
      "ভাব": 293,
      "আব": 294,
      "ণা": 295,
      "পুর": 296,
      "মূ": 297,
      "লটা": 298,
      "ীদের": 299,
      "ল্প": 300,
      "নই": 301,
      "মের": 302,
      "ছেন": 303,
      "জী": 304,
      "দ্র": 305,
      "পূর্": 306,
      "ফু": 307,
      "য়ের": 308,
      "খো": 309,
      "দান": 310,
      "অভ": 311,
      "ধি": 312,
      "পার": 313,
      "যু": 314,
      "টির": 315,
      "টো": 316,
      "দী": 317,
      "গ্": 318,
      "আস": 319,
      "গত": 320,
      "কই": 321,
      "চ্ছ": 322,
      "গে": 323,
      "চর": 324,
      "শী": 325,
      "রাজ": 326,
      "ত্ব": 327,
      "নকে": 328,
      "মো": 329,
      "কাটি": 330,
      "ক্ষে": 331,
      "অনি": 332,
      "গণ": 333,
      "জে": 334,
      "ীকে": 335,
      "স্থা": 336,
      "কটা": 337,
      "চাই": 338,
      "তের": 339,
      "ধু": 340,
      "বল": 341,
      "ভু": 342,
      "সম": 343,
      "তেছি": 344,
      "ন্ন": 345,
      "ঘু": 346,
      "ঠা": 347,
      "বন": 348,
      "বৃ": 349,
      "ক্ষা": 350,
      "তির": 351,
      "আলো": 352,
      "জো": 353,
      "যন্ত্র": 354,
      "লক": 355,
      "দৃ": 356,
      "লিখ": 357,
      "করণ": 358,
      "অধি": 359,
      "উৎ": 360,
      "চল": 361,
      "জু": 362,
      "জার": 363,
      "দৌ": 364,
      "নায়": 365,
      "ড়া": 366,
      "ষা": 367,
      "কর্ত": 368,
      "ন্দ্র": 369,
      "ধান": 370,
      "হীন": 371,
      "ড়ে": 372,
      "তাই": 373,
      "ভাগ": 374,
      "কল": 375,
      "ককে": 376,
      "নো": 377,
      "তাকে": 378,
      "লাই": 379,
      "স্ব": 380,
      "ফি": 381,
      "ভূ": 382,
      "ত্যা": 383,
      "নটা": 384,
      "সর": 385,
      "সর্": 386,
      "সম্": 387,
      "ময়": 388,
      "চ্ছে": 389,
      "গুলি": 390,
      "অগ্র": 391,
      "ঝা": 392,
      "ঠি": 393,
      "তই": 394,
      "দর": 395,
      "লার": 396,
      "ীরা": 397,
      "ড়াই": 398,
      "কাচি": 399,
      "নু": 400,
      "ফা": 401,
      "বের": 402,
      "ূর": 403,
      "বাহ": 404,
      "অনা": 405,
      "কৃত": 406,
      "আপ": 407,
      "আম": 408,
      "ডি": 409,
      "ব্": 410,
      "ান্": 411,
      "কালে": 412,
      "তেন": 413,
      "প্রতি": 414,
      "আয়": 415,
      "ানে": 416,
      "ষ্ঠ": 417,
      "লুম": 418,
      "অন্তর্": 419,
      "দো": 420,
      "পড়া": 421,
      "মী": 422,
      "সের": 423,
      "হ্": 424,
      "য়ন": 425,
      "ানের": 426,
      "অন্": 427,
      "দাঁ": 428,
      "তী": 429,
      "ভে": 430,
      "করি": 431,
      "খু": 432,
      "বী": 433,
      "রো": 434,
      "হে": 435,
      "অবি": 436,
      "ন্যা": 437,
      "রী": 438,
      "ুষ": 439,
      "য়াছি": 440,
      "পাত": 441,
      "মৃ": 442,
      "হু": 443,
      "ূপ": 444,
      "ঁচ": 445,
      "উচ্": 446,
      "ছু": 447,
      "ণী": 448,
      "নও": 449,
      "যে": 450,
      "শ্য": 451,
      "কাঁদ": 452,
      "ক্য": 453,
      "কদের": 454,
      "ধ্য": 455,
      "বস": 456,
      "রের": 457,
      "ণ্ঠ": 458,
      "গ্রহণ": 459,
      "লটি": 460,
      "সমা": 461,
      "নির্": 462,
      "পাই": 463,
      "দায়": 464,
      "বর্ত": 465,
      "ঘাত": 466,
      "উন্": 467,
      "ণি": 468,
      "পত্র": 469,
      "মই": 470,
      "েরই": 471,
      "লেম": 472,
      "ন্ধ": 473,
      "য়েছি": 474,
      "অক্ষর": 475,
      "কাটাই": 476,
      "অগ্": 477,
      "কটি": 478,
      "ঘো": 479,
      "চনা": 480,
      "বর্": 481,
      "কাচাই": 482,
      "টাকে": 483,
      "বেন": 484,
      "বেশ": 485,
      "ছাত্র": 486,
      "জ্ঞান": 487,
      "ঘট": 488,
      "দন": 489,
      "ধম": 490,
      "নিয়": 491,
      "পিছ": 492,
      "অপ্র": 493,
      "ন্য": 494,
      "পথ": 495,
      "পদ": 496,
      "ষণ": 497,
      "কাই": 498,
      "কাট": 499,
      "কাচা": 500,
      "সাহ": 501,
      "জাত": 502,
      "পূর্ব": 503,
      "অকাল": 504,
      "কথা": 505,
      "জল": 506,
      "তৃ": 507,
      "দর্": 508,
      "নর": 509,
      "কাশ": 510,
      "টাই": 511,
      "হাঁ": 512,
      "মুখ": 513,
      "ঞ্চ": 514,
      "উপা": 515,
      "কম": 516,
      "খাই": 517,
      "মহ": 518,
      "মকে": 519,
      "ল্য": 520,
      "স্য": 521,
      "িয়": 522,
      "নাই": 523,
      "কুর": 524,
      "অম": 525,
      "আই": 526,
      "গর": 527,
      "গর্": 528,
      "ির": 529,
      "ার্": 530,
      "টিতে": 531,
      "রাধ": 532,
      "ক্ষু": 533,
      "স্ত্র": 534,
      "জ্ঞা": 535,
      "ব্যব": 536,
      "ছো": 537,
      "ণে": 538,
      "ণের": 539,
      "লী": 540,
      "হই": 541,
      "কার্য": 542,
      "কণ্ঠ": 543,
      "খান": 544,
      "পের": 545,
      "বই": 546,
      "্ব": 547,
      "কাম": 548,
      "লায়": 549,
      "লেই": 550,
      "নাম": 551,
      "পাত্র": 552,
      "দিন": 553,
      "শ্বাস": 554,
      "মূলক": 555,
      "আড়": 556,
      "আবে": 557,
      "কল্প": 558,
      "ট্": 559,
      "ট্র": 560,
      "ধূ": 561,
      "ধর্": 562,
      "পী": 563,
      "পো": 564,
      "বায়": 565,
      "তিক": 566,
      "মাত্র": 567,
      "্যায়": 568,
      "ড়ে": 569,
      "গ্রা": 570,
      "উত্তর": 571,
      "টুকু": 572,
      "অঙ্গ": 573,
      "কূ": 574,
      "গঠ": 575,
      "পতি": 576,
      "ফে": 577,
      "ভীর": 578,
      "মন্": 579,
      "যো": 580,
      "যৌ": 581,
      "শত": 582,
      "শন": 583,
      "শার": 584,
      "টিকে": 585,
      "তাম": 586,
      "লাতে": 587,
      "তিতে": 588,
      "দেব": 589,
      "চির": 590,
      "স্তা": 591,
      "অপরি": 592,
      "গুলোর": 593,
      "কাঁদা": 594,
      "পূর্ণ": 595,
      "সর্ব": 596,
      "ইতি": 597,
      "তল": 598,
      "তরু": 599,
      "বলি": 600,
      "ভর": 601,
      "ভো": 602,
      "কায়": 603,
      "অন্য": 604,
      "কারি": 605,
      "চ্ছা": 606,
      "কুল": 607,
      "বুঝ": 608,
      "যোগ্য": 609,
      "শেষ": 610,
      "যুক্ত": 611,
      "মৃত্য": 612,
      "অক্": 613,
      "আস্ত": 614,
      "আসি": 615,
      "চক": 616,
      "জের": 617,
      "পণ": 618,
      "শান্ত": 619,
      "ীই": 620,
      "ীদার": 621,
      "ড়ানো": 622,
      "বাহি": 623,
      "নিত": 624,
      "মাই": 625,
      "লোক": 626,
      "তুল": 627,
      "ক্রম": 628,
      "প্রাপ্ত": 629,
      "অংশীদার": 630,
      "অভ্য": 631,
      "শীল": 632,
      "আল": 633,
      "আশ্র": 634,
      "গী": 635,
      "গার": 636,
      "চো": 637,
      "টের": 638,
      "নব": 639,
      "পর্": 640,
      "বয়": 641,
      "বলা": 642,
      "র্থ": 643,
      "রাই": 644,
      "স্বর": 645,
      "দেখা": 646,
      "দেওয়া": 647,
      "স্থান": 648,
      "জীব": 649,
      "ক্ষেত্র": 650,
      "অগ্নি": 651,
      "আখ": 652,
      "উদ্ধ": 653,
      "ওয়ার": 654,
      "খানা": 655,
      "গৃ": 656,
      "জমি": 657,
      "থি": 658,
      "প্": 659,
      "ভার": 660,
      "সঙ্গ": 661,
      "্যে": 662,
      "টায়": 663,
      "বিষ": 664,
      "চিত্র": 665,
      "আলোক": 666,
      "দাঁড়া": 667,
      "অঙ্": 668,
      "আঁ": 669,
      "আধ": 670,
      "ইউ": 671,
      "গান": 672,
      "জান": 673,
      "পন": 674,
      "ব্র": 675,
      "বান": 676,
      "রই": 677,
      "লক্ষ": 678,
      "ক্ষম": 679,
      "দেখ": 680,
      "হাস": 681,
      "ম্বর": 682,
      "ত্তি": 683,
      "চ্ছিল": 684,
      "অংশগ্রহণ": 685,
      "শোয়া": 686,
      "সমাজ": 687,
      "পিছাই": 688,
      "ঘন": 689,
      "তন": 690,
      "ধ্ব": 691,
      "ভ্র": 692,
      "শর": 693,
      "ষি": 694,
      "ষে": 695,
      "কেন্দ্র": 696,
      "তেছে": 697,
      "নাকে": 698,
      "ছিলাম": 699,
      "লিশ": 700,
      "ভালো": 701,
      "ড়ো": 702,
      "তারা": 703,
      "অর্থ": 704,
      "আইন": 705,
      "মৃত্যু": 706,
      "আফ": 707,
      "আশা": 708,
      "আনু": 709,
      "কতা": 710,
      "কলি": 711,
      "গল": 712,
      "ঢা": 713,
      "তভাবে": 714,
      "পরা": 715,
      "রূপ": 716,
      "লজ্": 717,
      "য়ই": 718,
      "কাতে": 719,
      "নির": 720,
      "মাদ": 721,
      "ড়াই": 722,
      "শিক্ষ": 723,
      "মানুষ": 724,
      "ানোর": 725,
      "অধ্য": 726,
      "অধ্যা": 727,
      "মুক্ত": 728,
      "যাত্র": 729,
      "শ্চি": 730,
      "ডায়": 731,
      "দীপ": 732,
      "আলা": 733,
      "আবাস": 734,
      "উদ্য": 735,
      "এলা": 736,
      "কত": 737,
      "কয়ে": 738,
      "কম্": 739,
      "খ্যা": 740,
      "গের": 741,
      "ঙা": 742,
      "ঠে": 743,
      "ণু": 744,
      "দল": 745,
      "দূর": 746,
      "মটা": 747,
      "শক্তি": 748,
      "সই": 749,
      "সন্": 750,
      "হী": 751,
      "িম": 752,
      "োপ": 753,
      "লেখা": 754,
      "য়েছে": 755,
      "অপরাধ": 756,
      "মেঘ": 757,
      "কালের": 758,
      "নীয়": 759,
      "পরী": 760,
      "বোধ": 761,
      "দৃশ্য": 762,
      "ফাঁ": 763,
      "অন্ধ": 764,
      "উচ্চ": 765,
      "আট": 766,
      "আন": 767,
      "আবি": 768,
      "আহ্": 769,
      "উদ": 770,
      "কথ": 771,
      "কৌ": 772,
      "খর": 773,
      "খণ্ড": 774,
      "ঘর": 775,
      "জনের": 776,
      "জনিত": 777,
      "ঝু": 778,
      "ণকে": 779,
      "তও": 780,
      "থে": 781,
      "দক্ষ": 782,
      "নটি": 783,
      "পক্ষ": 784,
      "ফল": 785,
      "বৈ": 786,
      "বকে": 787,
      "যাই": 788,
      "হরণ": 789,
      "ৌর": 790,
      "ড়ার": 791,
      "কাজ": 792,
      "স্বা": 793,
      "কুমার": 794,
      "ঙ্গা": 795,
      "স্তু": 796,
      "শিল্প": 797,
      "পিত": 798,
      "আত্মপ্র": 799,
      "উত্তরা": 800,
      "দৌড়": 801,
      "অক্টো": 802,
      "ইং": 803,
      "ইঞ্": 804,
      "উজ্": 805,
      "কও": 806,
      "কক্ষ": 807,
      "চয়": 808,
      "জয়": 809,
      "জন্": 810,
      "তম": 811,
      "মহা": 812,
      "শব্": 813,
      "হর": 814,
      "হের": 815,
      "্ড": 816,
      "বাঁ": 817,
      "তাও": 818,
      "লাটি": 819,
      "অনে": 820,
      "লো": 821,
      "তিই": 822,
      "রিক": 823,
      "চাম": 824,
      "পুত্র": 825,
      "দোষ": 826,
      "খুঁ": 827,
      "দর্শ": 828,
      "বায়ু": 829,
      "অল": 830,
      "আঙ": 831,
      "আর্": 832,
      "উন্ন": 833,
      "কট": 834,
      "খার": 835,
      "ধে": 836,
      "বন্": 837,
      "ব্যা": 838,
      "মহি": 839,
      "লট": 840,
      "লয়": 841,
      "লম্": 842,
      "শয়": 843,
      "সী": 844,
      "সরা": 845,
      "সত্য": 846,
      "িয়া": 847,
      "কেও": 848,
      "্যের": 849,
      "তেছিল": 850,
      "বাড়ি": 851,
      "ক্ষত্র": 852,
      "তিকে": 853,
      "তিটা": 854,
      "য়াছে": 855,
      "ন্ড": 856,
      "ন্দা": 857,
      "কারণ": 858,
      "কারের": 859,
      "চিত্ত": 860,
      "মির": 861,
      "গাছ": 862,
      "হাত": 863,
      "ক্রান্ত": 864,
      "ংসা": 865,
      "কবি": 866,
      "কমি": 867,
      "গজ": 868,
      "চন": 869,
      "ণই": 870,
      "তর্": 871,
      "দই": 872,
      "নয়": 873,
      "পড়": 874,
      "ফো": 875,
      "ফের": 876,
      "মৌ": 877,
      "সূ": 878,
      "সন্ত": 879,
      "ায়": 880,
      "য়ান": 881,
      "বাব": 882,
      "তাঁ": 883,
      "তাটা": 884,
      "বিনো": 885,
      "ছিলেন": 886,
      "তিস": 887,
      "য়াছিল": 888,
      "পাঠ": 889,
      "পাদ": 890,
      "দেরকে": 891,
      "অপূর্": 892,
      "খাঁ": 893,
      "শিক": 894,
      "শাস": 895,
      "অব্য": 896,
      "ন্দু": 897,
      "চ্ছিলুম": 898,
      "দ্ধি": 899,
      "যোগি": 900,
      "স্থি": 901,
      "মনো": 902,
      "পুরুষ": 903,
      "বৃষ্টি": 904,
      "ধমকা": 905,
      "শান্তি": 906,
      "অতি": 907,
      "আপে": 908,
      "কানো": 909,
      "কন্যা": 910,
      "গাই": 911,
      "ঘি": 912,
      "চরণ": 913,
      "তকে": 914,
      "পত": 915,
      "বড়": 916,
      "ভোগ": 917,
      "মর": 918,
      "মন্ত্র": 919,
      "মধ্য": 920,
      "সিক": 921,
      "হৃ": 922,
      "ো": 923,
      "োহ": 924,
      "য়ো": 925,
      "ারে": 926,
      "কাকে": 927,
      "তেও": 928,
      "লাটা": 929,
      "নাটা": 930,
      "বেগ": 931,
      "লিত": 932,
      "লিখি": 933,
      "পাশ": 934,
      "ভাবি": 935,
      "চ্ছেন": 936,
      "দেখি": 937,
      "অনুপ্র": 938,
      "মিক": 939,
      "গাঁ": 940,
      "গাম": 941,
      "জায়": 942,
      "জাহা": 943,
      "দির": 944,
      "চ্ছিলি": 945,
      "চ্ছিলাম": 946,
      "চ্ছিলেন": 947,
      "কেরা": 948,
      "ভাবেই": 949,
      "চারি": 950,
      "দুর্": 951,
      "অন্তর": 952,
      "সুখ": 953,
      "শুভ": 954,
      "উদ্ভাব": 955,
      "ধারা": 956,
      "ধিকার": 957,
      "ঠাকুর": 958,
      "বর্তী": 959,
      "ার্থ": 960,
      "গঠন": 961,
      "যোগা": 962,
      "ঁদ": 963,
      "অবা": 964,
      "অত্যা": 965,
      "আদ": 966,
      "আশ": 967,
      "ইস": 968,
      "একা": 969,
      "কান": 970,
      "চর্": 971,
      "ছল": 972,
      "জানি": 973,
      "ঠো": 974,
      "তুর": 975,
      "ধন": 976,
      "যথা": 977,
      "লতা": 978,
      "সটা": 979,
      "েও": 980,
      "ারা": 981,
      "তেছেন": 982,
      "বিদ": 983,
      "বিশ্বাস": 984,
      "রায়": 985,
      "লাশ": 986,
      "নাও": 987,
      "নিরা": 988,
      "নিয়া": 989,
      "প্রে": 990,
      "সাম": 991,
      "ষ্কার": 992,
      "চাল": 993,
      "নেত্র": 994,
      "চ্ছিলেম": 995,
      "কারীদের": 996,
      "রেই": 997,
      "তুম": 998,
      "দুঃ": 999,
      "ডাকা": 1000,
      "প্রাণ": 1001,
      "রণ্য": 1002,
      "খোঁ": 1003,
      "পারি": 1004,
      "যুদ্ধ": 1005,
      "ভূমি": 1006,
      "ঝাড়": 1007,
      "ষ্ঠান": 1008,
      "কাঁদাই": 1009,
      "আবেদন": 1010,
      "ট্টা": 1011,
      "গ্রাম": 1012,
      "ংস": 1013,
      "আং": 1014,
      "আতি": 1015,
      "আদা": 1016,
      "ঈদ": 1017,
      "ঔষ": 1018,
      "গম্": 1019,
      "গল্প": 1020,
      "চট": 1021,
      "চরি": 1022,
      "ছবি": 1023,
      "জনে": 1024,
      "ঠিক": 1025,
      "ণ্য": 1026,
      "তনা": 1027,
      "ধো": 1028,
      "নীর": 1029,
      "পৌ": 1030,
      "বহ": 1031,
      "বহু": 1032,
      "মত": 1033,
      "রক্ষ": 1034,
      "ষণা": 1035,
      "হরি": 1036,
      "ূপে": 1037,
      "্তি": 1038,
      "তেম": 1039,
      "বাধা": 1040,
      "রাগ": 1041,
      "লেও": 1042,
      "ক্ষয়": 1043,
      "তিও": 1044,
      "নিষ্ঠ": 1045,
      "পাথ": 1046,
      "পাল": 1047,
      "পায়": 1048,
      "ভাই": 1049,
      "অনুপ": 1050,
      "অনুষ": 1051,
      "চিত": 1052,
      "য়েছিল": 1053,
      "দিক": 1054,
      "ড়াতে": 1055,
      "জ্বল": 1056,
      "শালি": 1057,
      "থাক": 1058,
      "আত্মীয়": 1059,
      "ঞ্চল": 1060,
      "ক্রমে": 1061,
      "টেলি": 1062,
      "গিরি": 1063,
      "অনিয়": 1064,
      "দৃষ্ট": 1065,
      "দৃষ্টি": 1066,
      "জুড়ে": 1067,
      "দৌড়াই": 1068,
      "সর্গ": 1069,
      "চ্ছেদ": 1070,
      "গুলির": 1071,
      "তৃপ্ত": 1072,
      "ধূম": 1073,
      "আশ্রয়": 1074,
      "উদ্ধৃ": 1075,
      "গৃহ": 1076,
      "শরীর": 1077,
      "কৌশ": 1078,
      "জাহাজ": 1079,
      "ইসলাম": 1080,
      "আমি": 1081,
      "আপি": 1082,
      "আওয়া": 1083,
      "আদেশ": 1084,
      "উড": 1085,
      "উদা": 1086,
      "এখ": 1087,
      "কদ": 1088,
      "কচু": 1089,
      "গভীর": 1090,
      "চড়": 1091,
      "চলা": 1092,
      "চন্দ্র": 1093,
      "জর": 1094,
      "টই": 1095,
      "তীর": 1096,
      "দশ": 1097,
      "দয়": 1098,
      "নক": 1099,
      "নদী": 1100,
      "পূ": 1101,
      "পকে": 1102,
      "পড়ি": 1103,
      "বসি": 1104,
      "ভবিষ": 1105,
      "মরু": 1106,
      "ষের": 1107,
      "সও": 1108,
      "সব": 1109,
      "সৃ": 1110,
      "ুই": 1111,
      "োল": 1112,
      "্যই": 1113,
      "ানকে": 1114,
      "কাতর": 1115,
      "র্ণ": 1116,
      "র্ম": 1117,
      "বাঘ": 1118,
      "বাবু": 1119,
      "তামা": 1120,
      "তাদের": 1121,
      "বিত": 1122,
      "বিধ": 1123,
      "বিবাহ": 1124,
      "নাথ": 1125,
      "নাতে": 1126,
      "লিয়া": 1127,
      "লিখে": 1128,
      "মাল": 1129,
      "গুরু": 1130,
      "সাহি": 1131,
      "ড়ানো": 1132,
      "ষ্টা": 1133,
      "অনুশীল": 1134,
      "চিহ্": 1135,
      "অপে": 1136,
      "খাদ্য": 1137,
      "শিক্ষা": 1138,
      "ম্ব": 1139,
      "কিছু": 1140,
      "গুলোকে": 1141,
      "চ্ছিস": 1142,
      "চ্ছিলে": 1143,
      "জিনি": 1144,
      "সেই": 1145,
      "জনক": 1146,
      "শ্বর": 1147,
      "বাসী": 1148,
      "বাদী": 1149,
      "হারা": 1150,
      "ক্ষেপ": 1151,
      "কর্তা": 1152,
      "কর্তব্য": 1153,
      "রোধ": 1154,
      "উচ্চা": 1155,
      "জাতীয়": 1156,
      "অমর": 1157,
      "গর্ভ": 1158,
      "আফ্র": 1159,
      "শব্দ": 1160,
      "ভবিষ্য": 1161,
      "আক": 1162,
      "আভা": 1163,
      "আস্": 1164,
      "আন্ত": 1165,
      "আস্থা": 1166,
      "আঁচ": 1167,
      "ইচ্ছা": 1168,
      "উঠ": 1169,
      "কী": 1170,
      "গবে": 1171,
      "ঘৃ": 1172,
      "ঘড়ি": 1173,
      "চতু": 1174,
      "জ্র": 1175,
      "জ্য": 1176,
      "টকে": 1177,
      "তন্ত্র": 1178,
      "নকারী": 1179,
      "পট": 1180,
      "পলি": 1181,
      "বসা": 1182,
      "বলাই": 1183,
      "বড়ো": 1184,
      "বজ্র": 1185,
      "ভয়": 1186,
      "মস": 1187,
      "মন্দ": 1188,
      "মণ্ড": 1189,
      "মশার": 1190,
      "সকে": 1191,
      "হ্র": 1192,
      "হাই": 1193,
      "্ম": 1194,
      "েরা": 1195,
      "ানই": 1196,
      "কাঙ্": 1197,
      "টিকা": 1198,
      "তেজ": 1199,
      "বাচ": 1200,
      "বাক্য": 1201,
      "রাখ": 1202,
      "লাকে": 1203,
      "লাগা": 1204,
      "অনী": 1205,
      "ছিস": 1206,
      "ছিলো": 1207,
      "য়াল": 1208,
      "বেদ": 1209,
      "লিপি": 1210,
      "রিয়া": 1211,
      "গুন": 1212,
      "গুলো": 1213,
      "ত্রু": 1214,
      "সাদ": 1215,
      "দ্বার": 1216,
      "কুঁ": 1217,
      "করে": 1218,
      "অপর": 1219,
      "অপারে": 1220,
      "শিশু": 1221,
      "অভিজ্ঞ": 1222,
      "অবন": 1223,
      "গ্রস্ত": 1224,
      "ছাঁ": 1225,
      "কালীন": 1226,
      "যাব": 1227,
      "রুদ্ধ": 1228,
      "শ্ব": 1229,
      "পরিষ": 1230,
      "পরিমা": 1231,
      "স্থল": 1232,
      "কৃতি": 1233,
      "প্রায়": 1234,
      "খিলা": 1235,
      "আবৃ": 1236,
      "গ্নে": 1237,
      "দৌড়ে": 1238,
      "সম্মান": 1239,
      "অন্তর্ভু": 1240,
      "নির্ভর": 1241,
      "নিয়োগ": 1242,
      "ব্যবহার": 1243,
      "দেওয়াই": 1244,
      "আলোকচিত্র": 1245,
      "ইউনি": 1246,
      "লজ্জা": 1247,
      "আলাপ": 1248,
      "সন্ধান": 1249,
      "অক্টোপা": 1250,
      "ইংরে": 1251,
      "অম্": 1252,
      "অরু": 1253,
      "আমা": 1254,
      "আত্": 1255,
      "আশ্": 1256,
      "আগ্রহ": 1257,
      "আধু": 1258,
      "আগ্নে": 1259,
      "ইস্": 1260,
      "উশ": 1261,
      "উল্": 1262,
      "উচ্ছ": 1263,
      "এসে": 1264,
      "কড়": 1265,
      "খন": 1266,
      "ঘূর্": 1267,
      "চম": 1268,
      "ঝি": 1269,
      "দকে": 1270,
      "দস্য": 1271,
      "ধনু": 1272,
      "নক্ষত্র": 1273,
      "পঁ": 1274,
      "পড়": 1275,
      "পান": 1276,
      "পটি": 1277,
      "মল": 1278,
      "মটি": 1279,
      "মরা": 1280,
      "মরি": 1281,
      "রক্ত": 1282,
      "সন্ধ": 1283,
      "সৌর": 1284,
      "হত": 1285,
      "িতে": 1286,
      "ুত": 1287,
      "্যও": 1288,
      "তেছ": 1289,
      "বাসে": 1290,
      "বাজার": 1291,
      "তাব": 1292,
      "বিপি": 1293,
      "বিভাগ": 1294,
      "বিপদ": 1295,
      "ক্ষণ": 1296,
      "ক্ষ্ম": 1297,
      "নাশ": 1298,
      "নামা": 1299,
      "নিক": 1300,
      "নিতে": 1301,
      "নিশা": 1302,
      "নিম্": 1303,
      "পাতি": 1304,
      "পাড়া": 1305,
      "কারই": 1306,
      "মাঠ": 1307,
      "ভাষা": 1308,
      "অনুসন্ধান": 1309,
      "চিন্ত": 1310,
      "গামী": 1311,
      "নেই": 1312,
      "দিকে": 1313,
      "স্তি": 1314,
      "উপস্থা": 1315,
      "উপভোগ": 1316,
      "অভিভাব": 1317,
      "কির": 1318,
      "ছায়া": 1319,
      "িকতা": 1320,
      "ঙ্গল": 1321,
      "কর্ষ": 1322,
      "মুদ্র": 1323,
      "সিং": 1324,
      "সিত": 1325,
      "দুই": 1326,
      "কোনো": 1327,
      "কর্মী": 1328,
      "দেশে": 1329,
      "উদ্দীপ": 1330,
      "খিল": 1331,
      "আবহ": 1332,
      "ফুল": 1333,
      "অভ্যা": 1334,
      "ত্বের": 1335,
      "অনির্": 1336,
      "বৃত্ত": 1337,
      "কর্তৃ": 1338,
      "স্বভাব": 1339,
      "কৃতজ্ঞ": 1340,
      "মীমা": 1341,
      "যো": 1342,
      "ব্যবস্থা": 1343,
      "চরিত্র": 1344,
      "নিশাচর": 1345,
      "অত": 1346,
      "অদ্": 1347,
      "অল্প": 1348,
      "অসম": 1349,
      "অপ্রাপ্ত": 1350,
      "অণু": 1351,
      "অখণ্ড": 1352,
      "আত": 1353,
      "আদি": 1354,
      "ইজার": 1355,
      "ইন্দ্র": 1356,
      "এতি": 1357,
      "ঐতি": 1358,
      "ঐক্য": 1359,
      "কচি": 1360,
      "কীর": 1361,
      "গম": 1362,
      "গণ্ড": 1363,
      "ছাই": 1364,
      "জগ": 1365,
      "টর": 1366,
      "ঢে": 1367,
      "তৈ": 1368,
      "দয়া": 1369,
      "দন্ত": 1370,
      "পই": 1371,
      "পটা": 1372,
      "পন্": 1373,
      "বীর": 1374,
      "বদ্ধ": 1375,
      "মর্": 1376,
      "মুর": 1377,
      "যান": 1378,
      "রবি": 1379,
      "সো": 1380,
      "স্র": 1381,
      "সুর": 1382,
      "সমূ": 1383,
      "িকে": 1384,
      "ৌকি": 1385,
      "ানু": 1386,
      "কাব্য": 1387,
      "কাণ্ড": 1388,
      "বাবা": 1389,
      "বাদি": 1390,
      "তাটি": 1391,
      "বিক": 1392,
      "বিত্র": 1393,
      "বিহার": 1394,
      "বিদ্য": 1395,
      "বিদায়": 1396,
      "বিশেষ": 1397,
      "রাম": 1398,
      "রাত্র": 1399,
      "লাভ": 1400,
      "অনৈ": 1401,
      "ক্ষার": 1402,
      "ক্ষতি": 1403,
      "ছিলে": 1404,
      "ছিলি": 1405,
      "নিই": 1406,
      "লিক": 1407,
      "লির": 1408,
      "প্রজা": 1409,
      "প্রচার": 1410,
      "কারে": 1411,
      "মাছি": 1412,
      "দেরই": 1413,
      "স্ক": 1414,
      "স্প": 1415,
      "সাজ": 1416,
      "সাধু": 1417,
      "দেহ": 1418,
      "দ্ম": 1419,
      "মিষ্টি": 1420,
      "গাল": 1421,
      "গাহ": 1422,
      "হায়": 1423,
      "নেহ": 1424,
      "অভিবাস": 1425,
      "শাস্ত্র": 1426,
      "বরণ": 1427,
      "কর্ষণ": 1428,
      "নীকে": 1429,
      "চারী": 1430,
      "ঞ্জ": 1431,
      "ওয়ালা": 1432,
      "ক্রিয়া": 1433,
      "ঘাট": 1434,
      "ড়ির": 1435,
      "ড়িতে": 1436,
      "শ্রো": 1437,
      "চেতনা": 1438,
      "য়ারা": 1439,
      "উত্সাহ": 1440,
      "আরোহ": 1441,
      "ধারণ": 1442,
      "মূল": 1443,
      "যুব": 1444,
      "চ্ছন্ন": 1445,
      "তেছিলেন": 1446,
      "য়াছিলেন": 1447,
      "ঘোষ": 1448,
      "নিয়ন্ত্র": 1449,
      "কামড়া": 1450,
      "মন্দির": 1451,
      "অঙ্ক": 1452,
      "কয়েক": 1453,
      "পৌঁ": 1454,
      "সৃষ্টি": 1455,
      "হ্রা": 1456,
      "ঘূর্ণি": 1457,
      "অতী": 1458,
      "অকার্য": 1459,
      "অরণ্য": 1460,
      "আসা": 1461,
      "আবাহ": 1462,
      "আকর্ষণ": 1463,
      "উড়": 1464,
      "উদার": 1465,
      "কলা": 1466,
      "কঙ্": 1467,
      "কঠি": 1468,
      "খই": 1469,
      "গগ": 1470,
      "গকে": 1471,
      "গন্ধ": 1472,
      "ঘটা": 1473,
      "চের": 1474,
      "চলি": 1475,
      "চক্র": 1476,
      "ছার": 1477,
      "ছন্দ": 1478,
      "জানা": 1479,
      "ঝড়": 1480,
      "টানো": 1481,
      "ডে": 1482,
      "দূ": 1483,
      "নন্দ": 1484,
      "পদ্ধ": 1485,
      "বও": 1486,
      "বলে": 1487,
      "বস্থা": 1488,
      "ম্যা": 1489,
      "মত্ত": 1490,
      "রম": 1491,
      "রান": 1492,
      "সনা": 1493,
      "সংশ": 1494,
      "সমুদ্র": 1495,
      "ীও": 1496,
      "ীকরণ": 1497,
      "য়ী": 1498,
      "কাঞ্চ": 1499,
      "টাতে": 1500,
      "টিয়া": 1501,
      "র্জা": 1502,
      "বাজ": 1503,
      "বাল": 1504,
      "তাকেই": 1505,
      "বিজ": 1506,
      "বিবে": 1507,
      "লেখ": 1508,
      "ক্ষি": 1509,
      "ছিলুম": 1510,
      "নিজ": 1511,
      "য়াছেন": 1512,
      "বেই": 1513,
      "বেশি": 1514,
      "লিকা": 1515,
      "পাতা": 1516,
      "প্রদেশ": 1517,
      "প্রভু": 1518,
      "প্রধান": 1519,
      "প্রিয়": 1520,
      "মাম": 1521,
      "গুণ": 1522,
      "গুু": 1523,
      "ত্রিম": 1524,
      "সাধ": 1525,
      "সাজি": 1526,
      "দাতা": 1527,
      "য়েই": 1528,
      "মিত": 1529,
      "গাভ": 1530,
      "কুট": 1531,
      "কুসু": 1532,
      "জাহ": 1533,
      "হাড়": 1534,
      "নেও": 1535,
      "খাওয়া": 1536,
      "শিষ্ট": 1537,
      "তারই": 1538,
      "ড়াটি": 1539,
      "শাল": 1540,
      "কিত": 1541,
      "গ্রী": 1542,
      "জির": 1543,
      "বারে": 1544,
      "ল্লা": 1545,
      "পেঁ": 1546,
      "পরিকল্প": 1547,
      "ব্যক্তি": 1548,
      "সংস্": 1549,
      "খেল": 1550,
      "ক্রো": 1551,
      "কৃত্রিম": 1552,
      "শুদ্ধ": 1553,
      "গোশ": 1554,
      "উদ্দেশ": 1555,
      "ানির": 1556,
      "আর্য": 1557,
      "আবশ্য": 1558,
      "ফুল্": 1559,
      "পার্": 1560,
      "গ্ন": 1561,
      "আলোচনা": 1562,
      "ভাগ্য": 1563,
      "কল্যা": 1564,
      "আয়ত": 1565,
      "উন্মাদ": 1566,
      "অক্ষরজ্ঞান": 1567,
      "বর্ণ": 1568,
      "ট্রা": 1569,
      "ধর্ম": 1570,
      "কূল": 1571,
      "অংশীদারি": 1572,
      "লক্ষ্য": 1573,
      "খ্যাত": 1574,
      "আহ্বান": 1575,
      "অনেক": 1576,
      "বন্ধু": 1577,
      "পতঙ্গ": 1578,
      "বিদ্যা": 1579,
      "আপিল": 1580,
      "বিধবা": 1581,
      "সন্ধ্যা": 1582,
      "ইজারা": 1583,
      "ানুগ": 1584,
      "ঁকি": 1585,
      "অং": 1586,
      "অগো": 1587,
      "অশ্র": 1588,
      "অচে": 1589,
      "অফি": 1590,
      "অদৃশ্য": 1591,
      "অদৃষ্ট": 1592,
      "আছ": 1593,
      "আন্দ": 1594,
      "আহার": 1595,
      "ইহ": 1596,
      "ইন্": 1597,
      "উঠি": 1598,
      "এত": 1599,
      "এম": 1600,
      "ঔপ": 1601,
      "কলে": 1602,
      "কবর": 1603,
      "কলের": 1604,
      "কপট": 1605,
      "খল": 1606,
      "খস": 1607,
      "খদ্": 1608,
      "খানে": 1609,
      "গহ": 1610,
      "গড়া": 1611,
      "গমন": 1612,
      "গৌর": 1613,
      "ঘ্র": 1614,
      "ঘটি": 1615,
      "ছদ্ম": 1616,
      "ডু": 1617,
      "ডাই": 1618,
      "ণীর": 1619,
      "দটা": 1620,
      "দংশ": 1621,
      "দলের": 1622,
      "ধর": 1623,
      "পদে": 1624,
      "পরে": 1625,
      "পল্": 1626,
      "পণ্ড": 1627,
      "পত্তি": 1628,
      "বছ": 1629,
      "বন্দ": 1630,
      "বন্ধ": 1631,
      "মনে": 1632,
      "মদি": 1633,
      "মরণ": 1634,
      "মতো": 1635,
      "মণি": 1636,
      "যত্": 1637,
      "রকে": 1638,
      "সটি": 1639,
      "সক্ষম": 1640,
      "হো": 1641,
      "ুক": 1642,
      "ুষ্টি": 1643,
      "ৈব": 1644,
      "্থ": 1645,
      "্যান": 1646,
      "কাঠ": 1647,
      "টিই": 1648,
      "টিও": 1649,
      "বাগ": 1650,
      "বাসা": 1651,
      "বাদে": 1652,
      "বাণী": 1653,
      "রাখি": 1654,
      "লাষ": 1655,
      "লাগি": 1656,
      "অনভ": 1657,
      "অনভি": 1658,
      "ক্লা": 1659,
      "নাটি": 1660,
      "ছিলেম": 1661,
      "নিশ্চি": 1662,
      "য়াছ": 1663,
      "ন্দের": 1664,
      "মাধ": 1665,
      "ভাষ": 1666,
      "স্ট": 1667,
      "অনুসার": 1668,
      "অনুচর": 1669,
      "অনুষ্ঠান": 1670,
      "য়েছেন": 1671,
      "চাঁদ": 1672,
      "জালি": 1673,
      "খাস": 1674,
      "ড়াকে": 1675,
      "ড়াটা": 1676,
      "অভিশ": 1677,
      "থামা": 1678,
      "ত্তিক": 1679,
      "কিং": 1680,
      "কিল": 1681,
      "মানো": 1682,
      "মান্য": 1683,
      "মান্ত": 1684,
      "িকভাবে": 1685,
      "ংশের": 1686,
      "অধস্ত": 1687,
      "অধীন": 1688,
      "জিরা": 1689,
      "কারীরা": 1690,
      "হিত": 1691,
      "মুখে": 1692,
      "তুলি": 1693,
      "সিদ্ধ": 1694,
      "দ্ধা": 1695,
      "চারে": 1696,
      "ঞ্চি": 1697,
      "সংগী": 1698,
      "অন্তঃ": 1699,
      "অন্তরা": 1700,
      "পুজো": 1701,
      "ষ্ট্র": 1702,
      "গোল": 1703,
      "ড়িটা": 1704,
      "উত্তা": 1705,
      "উত্তে": 1706,
      "মারা": 1707,
      "ড়িয়া": 1708,
      "ড়িয়ে": 1709,
      "ধারী": 1710,
      "মূল্য": 1711,
      "ীদেরকে": 1712,
      "দ্রুত": 1713,
      "অভ্র": 1714,
      "গণিত": 1715,
      "তেছিলাম": 1716,
      "ঘুমা": 1717,
      "স্বর্": 1718,
      "অগ্রা": 1719,
      "বসন্ত": 1720,
      "বর্ষ": 1721,
      "উপাধি": 1722,
      "আবেগ": 1723,
      "যৌবন": 1724,
      "অভ্যন্ত": 1725,
      "স্বরে": 1726,
      "অগ্নিসং": 1727,
      "আশাবাদ": 1728,
      "অধ্যাপ": 1729,
      "পরীক্ষা": 1730,
      "আটকা": 1731,
      "আবির্": 1732,
      "খারি": 1733,
      "মনোযোগ": 1734,
      "দুঃখ": 1735,
      "আদাল": 1736,
      "গম্ভীর": 1737,
      "কাঙ্ক্ষা": 1738,
      "আধুনি": 1739,
      "উপস্থাপ": 1740,
      "অভিভাবক": 1741,
      "যোগ": 1742,
      "এতিম": 1743,
      "হ্রাস": 1744,
      "কল্যাণ": 1745,
      "অনভিজ্ঞ": 1746,
      "অহ": 1747,
      "অভা": 1748,
      "অ্যা": 1749,
      "অকর্ম": 1750,
      "অদক্ষ": 1751,
      "অট্টা": 1752,
      "আড": 1753,
      "আকু": 1754,
      "আক্রান্ত": 1755,
      "আচরণ": 1756,
      "ইট": 1757,
      "কবু": 1758,
      "কণি": 1759,
      "খানি": 1760,
      "ঘে": 1761,
      "চেই": 1762,
      "ছক্": 1763,
      "ছুর": 1764,
      "জরা": 1765,
      "জনা": 1766,
      "জরি": 1767,
      "ঝর": 1768,
      "টক": 1769,
      "ডো": 1770,
      "ঢ়": 1771,
      "ঢো": 1772,
      "তটা": 1773,
      "দাই": 1774,
      "ধাই": 1775,
      "নগ": 1776,
      "নান": 1777,
      "পশ": 1778,
      "পৃ": 1779,
      "প্য": 1780,
      "পঞ্": 1781,
      "পত্য": 1782,
      "পদ্য": 1783,
      "পশ্চি": 1784,
      "বহি": 1785,
      "ভঙ্গ": 1786,
      "ভক্তি": 1787,
      "রং": 1788,
      "রসিক": 1789,
      "লব": 1790,
      "ল্যা": 1791,
      "শই": 1792,
      "শূ": 1793,
      "শের": 1794,
      "সভা": 1795,
      "সমান": 1796,
      "সরণ": 1797,
      "সূর": 1798,
      "হস্ত": 1799,
      "হূর": 1800,
      "ৃঙ্": 1801,
      "ৎকার": 1802,
      "ৎসাহ": 1803,
      "েরণা": 1804,
      "কালো": 1805,
      "কাঠি": 1806,
      "টাও": 1807,
      "বাড়ি": 1808,
      "বাচক": 1809,
      "তামি": 1810,
      "বিছ": 1811,
      "বির": 1812,
      "বিড়া": 1813,
      "রাখা": 1814,
      "রাস্তা": 1815,
      "লাক": 1816,
      "অনন্য": 1817,
      "নাগ": 1818,
      "নিষ্": 1819,
      "পাপ": 1820,
      "পাতে": 1821,
      "প্রয়া": 1822,
      "প্রকাশ": 1823,
      "মাকে": 1824,
      "মাতা": 1825,
      "স্পর্": 1826,
      "স্নেহ": 1827,
      "লোকে": 1828,
      "লোকের": 1829,
      "ত্বে": 1830,
      "গুঁ": 1831,
      "সাথ": 1832,
      "সাক্ষ": 1833,
      "সাজা": 1834,
      "ড়ের": 1835,
      "অনুম": 1836,
      "অনুচ্": 1837,
      "অনুগত": 1838,
      "অনুভূ": 1839,
      "য়েল": 1840,
      "চাহি": 1841,
      "ছেলে": 1842,
      "গায়": 1843,
      "জাল": 1844,
      "জাতি": 1845,
      "হাকে": 1846,
      "ঙ্ক": 1847,
      "দিষ্ট": 1848,
      "করো": 1849,
      "অপব্যবহার": 1850,
      "শির": 1851,
      "শিঙা": 1852,
      "ম্প": 1853,
      "ম্ভ": 1854,
      "অবসর": 1855,
      "অবহে": 1856,
      "ন্তু": 1857,
      "ছাগ": 1858,
      "মেষ": 1859,
      "বরে": 1860,
      "আত্মর": 1861,
      "অধিক": 1862,
      "কালী": 1863,
      "কারীকে": 1864,
      "একনায়": 1865,
      "ঙ্গিত": 1866,
      "হিঁচ": 1867,
      "মুক্তি": 1868,
      "রেডি": 1869,
      "তুলে": 1870,
      "জনকে": 1871,
      "শ্চা": 1872,
      "পেয়ারা": 1873,
      "পরিচয়": 1874,
      "ব্যয়": 1875,
      "সংক্রান্ত": 1876,
      "কোচ": 1877,
      "অন্তিম": 1878,
      "পুন": 1879,
      "প্রাচ": 1880,
      "সুবি": 1881,
      "শ্রে": 1882,
      "অক্ষম": 1883,
      "অক্ষি": 1884,
      "অক্ষরে": 1885,
      "চুরি": 1886,
      "মনই": 1887,
      "উত্পাদ": 1888,
      "শোক": 1889,
      "জীবন": 1890,
      "ফুস": 1891,
      "দানের": 1892,
      "যুক্তি": 1893,
      "রাজনী": 1894,
      "কাটিয়েছি": 1895,
      "সমর্": 1896,
      "তেছিস": 1897,
      "তেছিলে": 1898,
      "তেছিলি": 1899,
      "বৃদ্ধি": 1900,
      "যন্ত্রবি": 1901,
      "লিখাই": 1902,
      "অধিকার": 1903,
      "অধিনায়": 1904,
      "অধিবেশ": 1905,
      "উৎপী": 1906,
      "গুলিকে": 1907,
      "অগ্রগ": 1908,
      "ীরাই": 1909,
      "কাচিয়েছি": 1910,
      "কৃতকার্য": 1911,
      "আমলা": 1912,
      "আয়ো": 1913,
      "আয়ত্ত": 1914,
      "অন্ন": 1915,
      "অন্দর": 1916,
      "ভেদ": 1917,
      "ক্ষুধা": 1918,
      "ট্রে": 1919,
      "আধো": 1920,
      "ধ্বনি": 1921,
      "ভ্রম": 1922,
      "মাদুর": 1923,
      "ড়াইয়া": 1924,
      "অধ্যয়ন": 1925,
      "খরগোশ": 1926,
      "উজ্জ্বল": 1927,
      "মহিষ": 1928,
      "তর্ক": 1929,
      "আপেক্ষ": 1930,
      "হৃদয়": 1931,
      "অনুপ্রবেশ": 1932,
      "অত্যাচার": 1933,
      "ঔষধ": 1934,
      "আওয়াজ": 1935,
      "আফ্রি": 1936,
      "চতুর্": 1937,
      "পলিথি": 1938,
      "ত্রুটি": 1939,
      "অন্তর্ভুক্তি": 1940,
      "দস্যু": 1941,
      "বিপিন": 1942,
      "আন্দোল": 1943,
      "পণ্ডিত": 1944,
      "অগ্রাধিকার": 1945,
      "অগ্নিসংযোগ": 1946,
      "অহং": 1947,
      "হূর্ত": 1948,
      "রেডিও": 1949,
      "অলি": 1950,
      "অজ্ঞ": 1951,
      "অভাব": 1952,
      "অটো": 1953,
      "অঘট": 1954,
      "অযোগ্য": 1955,
      "অশান্তি": 1956,
      "অতৃপ্ত": 1957,
      "অগভীর": 1958,
      "অরবি": 1959,
      "আও": 1960,
      "আগু": 1961,
      "আলু": 1962,
      "আদ্য": 1963,
      "আধি": 1964,
      "আবর্ত": 1965,
      "আঘাত": 1966,
      "আজ্ঞা": 1967,
      "আশ্বাস": 1968,
      "আকুল": 1969,
      "আক্রম": 1970,
      "আহরণ": 1971,
      "আলো": 1972,
      "আদর্শ": 1973,
      "আগামী": 1974,
      "আল্লা": 1975,
      "ইত্যা": 1976,
      "উট": 1977,
      "ওড়": 1978,
      "ওপর": 1979,
      "কয়": 1980,
      "খতি": 1981,
      "গলি": 1982,
      "গন্ত": 1983,
      "চও": 1984,
      "চুর": 1985,
      "চনার": 1986,
      "চক্ষু": 1987,
      "জাই": 1988,
      "জগত": 1989,
      "টল": 1990,
      "ডল": 1991,
      "ডার": 1992,
      "ণটা": 1993,
      "তৎ": 1994,
      "তরা": 1995,
      "তলে": 1996,
      "তত্ত": 1997,
      "তরণ": 1998,
      "তীয়": 1999,
      "থু": 2000,
      "দীর": 2001,
      "দণ্ড": 2002,
      "ধরা": 2003,
      "নৌ": 2004,
      "নানা": 2005,
      "পল": 2006,
      "পলা": 2007,
      "পক্": 2008,
      "পদের": 2009,
      "পত্ত": 2010,
      "পড়া": 2011,
      "ফার": 2012,
      "বউ": 2013,
      "বক": 2014,
      "বণ": 2015,
      "বরা": 2016,
      "বতী": 2017,
      "ভব": 2018,
      "ভর্": 2019,
      "ভরে": 2020,
      "মতে": 2021,
      "মক্": 2022,
      "মনের": 2023,
      "রক": 2024,
      "রোগ": 2025,
      "রঞ্": 2026,
      "রূপে": 2027,
      "শাই": 2028,
      "শহর": 2029,
      "সাই": 2030,
      "সজ্": 2031,
      "সীন": 2032,
      "হকে": 2033,
      "িই": 2034,
      "িয়ে": 2035,
      "ীকার": 2036,
      "ুত্": 2037,
      "েস্তা": 2038,
      "ৈন্য": 2039,
      "ড়ই": 2040,
      "য়রা": 2041,
      "কেল": 2042,
      "্যকে": 2043,
      "ানটা": 2044,
      "কাছি": 2045,
      "কাটার": 2046,
      "টিভি": 2047,
      "টিফি": 2048,
      "বাই": 2049,
      "বাচ্": 2050,
      "বাস্ত": 2051,
      "বাজি": 2052,
      "বালক": 2053,
      "তাপ": 2054,
      "তাংশ": 2055,
      "বিন": 2056,
      "বিদেশ": 2057,
      "বিধি": 2058,
      "বিহীন": 2059,
      "বিপরী": 2060,
      "রাজা": 2061,
      "লাপি": 2062,
      "অনন্ত": 2063,
      "অন্যায়": 2064,
      "নাচ": 2065,
      "নাগা": 2066,
      "নিরু": 2067,
      "নিবেশ": 2068,
      "য়ায়": 2069,
      "য়াতে": 2070,
      "য়াস্ত্র": 2071,
      "পাড়": 2072,
      "পাখি": 2073,
      "ন্ডা": 2074,
      "প্রথ": 2075,
      "প্রকার": 2076,
      "প্রতার": 2077,
      "প্রণা": 2078,
      "প্রতির": 2079,
      "প্রদীপ": 2080,
      "প্রস্তু": 2081,
      "কারীর": 2082,
      "কারবার": 2083,
      "মালা": 2084,
      "সাং": 2085,
      "্যাদা": 2086,
      "ভিজা": 2087,
      "ভিত্তিক": 2088,
      "ষ্ণ": 2089,
      "অনুমান": 2090,
      "অনুযোগ": 2091,
      "অনুকরণ": 2092,
      "অনুলিপি": 2093,
      "অনুসরণ": 2094,
      "চিতা": 2095,
      "য়ো": 2096,
      "য়েমি": 2097,
      "মিটার": 2098,
      "মিনার": 2099,
      "চাকরি": 2100,
      "গায়ে": 2101,
      "গাধা": 2102,
      "গাড়ি": 2103,
      "জামা": 2104,
      "জাজি": 2105,
      "হাম": 2106,
      "হাদি": 2107,
      "হাওয়া": 2108,
      "দিত": 2109,
      "দিনের": 2110,
      "দিকটা": 2111,
      "স্তার": 2112,
      "অপমান": 2113,
      "অপকর্ম": 2114,
      "অপচে": 2115,
      "অপসার": 2116,
      "অপুষ্টি": 2117,
      "উপল": 2118,
      "উপন্যা": 2119,
      "উপকেন্দ্র": 2120,
      "খাট": 2121,
      "শিঙ্গা": 2122,
      "তারি": 2123,
      "অভিমান": 2124,
      "অভিযোগ": 2125,
      "অভিযুক্ত": 2126,
      "অভিযাত্র": 2127,
      "অভিনন্দ": 2128,
      "শালা": 2129,
      "শাদার": 2130,
      "শাস্তি": 2131,
      "কিই": 2132,
      "কিয়া": 2133,
      "অবস": 2134,
      "অবতার": 2135,
      "অবমান": 2136,
      "অবস্থা": 2137,
      "অবকাশ": 2138,
      "অবক্ষয়": 2139,
      "অবতরণ": 2140,
      "ক্তার": 2141,
      "ক্তিক": 2142,
      "গ্রন্": 2143,
      "মানচিত্র": 2144,
      "মেই": 2145,
      "মো": 2146,
      "মেধা": 2147,
      "বরের": 2148,
      "ন্দর": 2149,
      "চ্ছিন্ন": 2150,
      "আত্মনিয়ন্ত্র": 2151,
      "অধ্যায়": 2152,
      "জিলাপি": 2153,
      "একটু": 2154,
      "হিংসা": 2155,
      "বুঝা": 2156,
      "যাজ": 2157,
      "শ্চয়": 2158,
      "সহস্র": 2159,
      "দুষ্ট": 2160,
      "পরিশ্র": 2161,
      "পরিচাল": 2162,
      "পরিবহ": 2163,
      "স্থার": 2164,
      "সংয": 2165,
      "খেলা": 2166,
      "ডাক্তার": 2167,
      "পর্য": 2168,
      "অন্তরী": 2169,
      "ত্যে": 2170,
      "পুরা": 2171,
      "পুলিশ": 2172,
      "প্রাঙ্গ": 2173,
      "কাঁক": 2174,
      "শ্রী": 2175,
      "অক্ষয়": 2176,
      "য়ারি": 2177,
      "চুক্তি": 2178,
      "গিনী": 2179,
      "গিয়েছি": 2180,
      "মার্": 2181,
      "টার্": 2182,
      "তরবার": 2183,
      "উত্থ": 2184,
      "উত্থা": 2185,
      "অর্ধ": 2186,
      "অর্ধে": 2187,
      "আর্ত": 2188,
      "আরোগ": 2189,
      "শোনা": 2190,
      "আবর্": 2191,
      "আবদার": 2192,
      "ণাকে": 2193,
      "মূর": 2194,
      "জীবী": 2195,
      "দ্রা": 2196,
      "দ্রব্য": 2197,
      "খোল": 2198,
      "খোলা": 2199,
      "দানে": 2200,
      "পারে": 2201,
      "দীর্": 2202,
      "চরম": 2203,
      "রাজক": 2204,
      "অনিচ্ছা": 2205,
      "কটাক্ষ": 2206,
      "সমর্থ": 2207,
      "উৎপা": 2208,
      "হীনতা": 2209,
      "স্বপ্": 2210,
      "ত্যাগ": 2211,
      "ঠিকা": 2212,
      "অনাহার": 2213,
      "অনাবৃষ্টি": 2214,
      "আপন": 2215,
      "আমদ": 2216,
      "আয়কর": 2217,
      "য়াছিলাম": 2218,
      "মৃত": 2219,
      "সমালো": 2220,
      "অগ্ন্য": 2221,
      "অপ্রিয়": 2222,
      "জলপাই": 2223,
      "দর্শি": 2224,
      "দর্শন": 2225,
      "উপাসনা": 2226,
      "ছোঁ": 2227,
      "আড়ং": 2228,
      "ধূমকে": 2229,
      "যোজন": 2230,
      "দেবতা": 2231,
      "ইতিহাস": 2232,
      "ভরসা": 2233,
      "অভ্যর্থ": 2234,
      "আলস্য": 2235,
      "গারে": 2236,
      "চোখ": 2237,
      "জীবনী": 2238,
      "উদ্ধার": 2239,
      "ওয়ার্ড": 2240,
      "বিষয়": 2241,
      "আঁশ": 2242,
      "আঁধার": 2243,
      "সমাজকর্ম": 2244,
      "আফগান": 2245,
      "আনুষ্ঠান": 2246,
      "শিক্ষার্থ": 2247,
      "অধ্যাদেশ": 2248,
      "যাত্রা": 2249,
      "ডায়রি": 2250,
      "আনন্দ": 2251,
      "আবিষ্কার": 2252,
      "ঝুলি": 2253,
      "উত্তরাধিকার": 2254,
      "ইঞ্জিনি": 2255,
      "রিকশা": 2256,
      "দোষার": 2257,
      "খুঁত": 2258,
      "অলস": 2259,
      "আঙি": 2260,
      "আর্দ্র": 2261,
      "শয়ত": 2262,
      "কমিশ": 2263,
      "সূত্র": 2264,
      "অব্যয়": 2265,
      "অনুপ্রেরণা": 2266,
      "ধারাবাহ": 2267,
      "আশপাশ": 2268,
      "প্রেম": 2269,
      "আবেদনপত্র": 2270,
      "পাথর": 2271,
      "অনুপস্থি": 2272,
      "টেলিভি": 2273,
      "কৌশল": 2274,
      "উদাহরণ": 2275,
      "উদাসীন": 2276,
      "চড়ুই": 2277,
      "পূরণ": 2278,
      "সাহিত্য": 2279,
      "অপেশাদার": 2280,
      "আস্বাদ": 2281,
      "কীট": 2282,
      "জ্যো": 2283,
      "মসজি": 2284,
      "ইউনিফ": 2285,
      "ইংরেজি": 2286,
      "আগ্নেয়াস্ত্র": 2287,
      "পঁচি": 2288,
      "নিম্ন": 2289,
      "অনির্দিষ্ট": 2290,
      "মীমাং": 2291,
      "গণ্ডার": 2292,
      "গগন": 2293,
      "কুসুম": 2294,
      "অশ্রু": 2295,
      "ডাইনো": 2296,
      "সিদ্ধান্ত": 2297,
      "আবির্ভাব": 2298,
      "পৃথি": 2299,
      "শূন্য": 2300,
      "ঁকে": 2301,
      "অকু": 2302,
      "অদি": 2303,
      "অত্ম": 2304,
      "অভাগ": 2305,
      "অযৌ": 2306,
      "অতুল": 2307,
      "অমানুষ": 2308,
      "অচলা": 2309,
      "অকৃতজ্ঞ": 2310,
      "অশুদ্ধ": 2311,
      "অয়েল": 2312,
      "আরা": 2313,
      "আক্": 2314,
      "আলি": 2315,
      "আঙ্": 2316,
      "আড়া": 2317,
      "আমান": 2318,
      "আমে": 2319,
      "আঙ্গ": 2320,
      "আবাদ": 2321,
      "আপ্ত": 2322,
      "আশী": 2323,
      "আমো": 2324,
      "আদর": 2325,
      "আপাত": 2326,
      "আদায়": 2327,
      "আঞ্চ": 2328,
      "আরাধ": 2329,
      "আচ্ছা": 2330,
      "আর্থ": 2331,
      "আরণ্য": 2332,
      "আক্রো": 2333,
      "আভিজা": 2334,
      "ইত": 2335,
      "ইফ": 2336,
      "ইরা": 2337,
      "ইমার": 2338,
      "ইচ্ছ": 2339,
      "ইন্ধ": 2340,
      "ইশার": 2341,
      "ইলিশ": 2342,
      "ইন্দু": 2343,
      "ইঁদ": 2344,
      "ইঙ্গিত": 2345,
      "ঈশ্বর": 2346,
      "উঁ": 2347,
      "উনি": 2348,
      "উজা": 2349,
      "উচ্ছি": 2350,
      "উমার": 2351,
      "উক্তি": 2352,
      "উদী": 2353,
      "ঋণ": 2354,
      "ঋতু": 2355,
      "ঋষি": 2356,
      "এই": 2357,
      "এর": 2358,
      "এমন": 2359,
      "ঐশ্বর": 2360,
      "ওষ": 2361,
      "ওখান": 2362,
      "কপা": 2363,
      "কন্": 2364,
      "কণ্": 2365,
      "কান্ত": 2366,
      "কটে": 2367,
      "কচ্ছ": 2368,
      "কষা": 2369,
      "কফি": 2370,
      "খট": 2371,
      "খুর": 2372,
      "খন্ড": 2373,
      "খয়রা": 2374,
      "গয়": 2375,
      "গদ্য": 2376,
      "গরী": 2377,
      "গভর্": 2378,
      "ঘরে": 2379,
      "ঘো": 2380,
      "চী": 2381,
      "চকে": 2382,
      "চঞ্চল": 2383,
      "ছড়ানো": 2384,
      "জটি": 2385,
      "জবা": 2386,
      "জমা": 2387,
      "জুর": 2388,
      "জমহ": 2389,
      "টন": 2390,
      "টয়": 2391,
      "টমে": 2392,
      "টউশ": 2393,
      "ঠান্": 2394,
      "ঢৌ": 2395,
      "ণার": 2396,
      "তহ": 2397,
      "তমা": 2398,
      "দলে": 2399,
      "দুর": 2400,
      "ধনা": 2401,
      "ধনি": 2402,
      "ধনী": 2403,
      "ধরণ": 2404,
      "নখ": 2405,
      "নদের": 2406,
      "নভো": 2407,
      "নগজ": 2408,
      "পতা": 2409,
      "পদ্": 2410,
      "পানো": 2411,
      "পটে": 2412,
      "পরাজ": 2413,
      "পক্ষে": 2414,
      "পন্ন": 2415,
      "পড়ে": 2416,
      "পবিত্র": 2417,
      "পশ্চা": 2418,
      "ফস": 2419,
      "ফলের": 2420,
      "বটি": 2421,
      "বঙ্গ": 2422,
      "বসে": 2423,
      "বধান": 2424,
      "বদন্ত": 2425,
      "ভরা": 2426,
      "মস্ত": 2427,
      "মধু": 2428,
      "মঞ্চ": 2429,
      "যষ্টি": 2430,
      "রপ্ত": 2431,
      "লঙ্গ": 2432,
      "লড়াই": 2433,
      "শম": 2434,
      "শয": 2435,
      "শটা": 2436,
      "শকু": 2437,
      "শয়ন": 2438,
      "ষড়": 2439,
      "সৌ": 2440,
      "সরি": 2441,
      "স্যা": 2442,
      "সওয়ার": 2443,
      "সৈন্য": 2444,
      "হড়": 2445,
      "াম": 2446,
      "াবাস": 2447,
      "ুণ": 2448,
      "ুধ": 2449,
      "ুৎ": 2450,
      "োজাহাজ": 2451,
      "্ডা": 2452,
      "ড়ের": 2453,
      "ড়টা": 2454,
      "ড়সওয়ার": 2455,
      "েরও": 2456,
      "কেঁচ": 2457,
      "্যতা": 2458,
      "ান্য": 2459,
      "্ত্য": 2460,
      "কাচ": 2461,
      "কামান": 2462,
      "কাঠা": 2463,
      "কামী": 2464,
      "কাপুরুষ": 2465,
      "টিকটি": 2466,
      "টিকলি": 2467,
      "টিউমার": 2468,
      "তেঁ": 2469,
      "বাতি": 2470,
      "বালি": 2471,
      "বাদা": 2472,
      "বাছুর": 2473,
      "তাতে": 2474,
      "তাড়া": 2475,
      "তাপূর্ণ": 2476,
      "তাজমহ": 2477,
      "বিল": 2478,
      "বিলে": 2479,
      "বিনি": 2480,
      "বিয়ে": 2481,
      "বিবাদ": 2482,
      "বিজ্ঞা": 2483,
      "বিজয়": 2484,
      "বিরোধ": 2485,
      "বিশ্ব": 2486,
      "বিনিয়োগ": 2487,
      "রাতে": 2488,
      "রাগা": 2489,
      "রাষ্ট্র": 2490,
      "লাউ": 2491,
      "লেট": 2492,
      "লেবু": 2493,
      "নাত": 2494,
      "নাদের": 2495,
      "নিঃ": 2496,
      "নিবে": 2497,
      "নিন্দ": 2498,
      "নিমন্ত্র": 2499,
      "য়াই": 2500,
      "বেলা": 2501,
      "বেলু": 2502,
      "বেশী": 2503,
      "লিচু": 2504,
      "পাধ": 2505,
      "পাটা": 2506,
      "পাওয়া": 2507,
      "পাঁচ": 2508,
      "প্রান্ত": 2509,
      "প্রশ্র": 2510,
      "প্রত্যা": 2511,
      "প্রার্থ": 2512,
      "কারা": 2513,
      "মালি": 2514,
      "মাথা": 2515,
      "মাজার": 2516,
      "ভাঙ": 2517,
      "ভাবু": 2518,
      "ভাগে": 2519,
      "স্পর": 2520,
      "লোয়া": 2521,
      "ত্রা": 2522,
      "সাফ": 2523,
      "সাৎ": 2524,
      "সায়": 2525,
      "সাধ্য": 2526,
      "সাধারণ": 2527,
      "্যাত্": 2528,
      "দেও": 2529,
      "দাল": 2530,
      "দাকে": 2531,
      "দ্বী": 2532,
      "ভিমরু": 2533,
      "ষ্ম": 2534,
      "অনুমি": 2535,
      "অনুবাদ": 2536,
      "অনুগ্রহ": 2537,
      "অনুদান": 2538,
      "অনুপাত": 2539,
      "চিরু": 2540,
      "মিকে": 2541,
      "মিশ্র": 2542,
      "চামি": 2543,
      "চাটু": 2544,
      "চাদর": 2545,
      "গালাগা": 2546,
      "কুন্ড": 2547,
      "কুমির": 2548,
      "জামাই": 2549,
      "জামরু": 2550,
      "হাতে": 2551,
      "হাস্য": 2552,
      "নেতা": 2553,
      "করমর্": 2554,
      "স্তে": 2555,
      "স্তুর": 2556,
      "অপ্": 2557,
      "অপবাদ": 2558,
      "অপমৃত্যু": 2559,
      "অপহরণ": 2560,
      "উপত্য": 2561,
      "উপগ্রহ": 2562,
      "উপকরণ": 2563,
      "উপনির্": 2564,
      "উপযুক্ত": 2565,
      "উপসর্গ": 2566,
      "উপজাতীয়": 2567,
      "উপনিবেশ": 2568,
      "উপঢৌ": 2569,
      "উপদ্বী": 2570,
      "খাম": 2571,
      "খাটা": 2572,
      "খাবার": 2573,
      "খামার": 2574,
      "শিব": 2575,
      "শিয়া": 2576,
      "তারকাঁ": 2577,
      "ড়ায়": 2578,
      "জ্জ্বল": 2579,
      "অভিশা": 2580,
      "অভিবাদ": 2581,
      "অভিসার": 2582,
      "অভিধান": 2583,
      "অভিভূ": 2584,
      "অভিঘাত": 2585,
      "অভিজাত": 2586,
      "অভিষে": 2587,
      "অভিনেত্র": 2588,
      "অভিব্যক্তি": 2589,
      "অভিযোজন": 2590,
      "শায়": 2591,
      "কিড": 2592,
      "কিয়ে": 2593,
      "কিশো": 2594,
      "অবয়": 2595,
      "অব্যা": 2596,
      "অবনী": 2597,
      "অববাহি": 2598,
      "অবলম্": 2599,
      "ছাগল": 2600,
      "মেশি": 2601,
      "বরফ": 2602,
      "পিপা": 2603,
      "পিশা": 2604,
      "পিণ্ড": 2605,
      "পিপড়া": 2606,
      "িকই": 2607,
      "আত্মহ": 2608,
      "আত্মবি": 2609,
      "আত্মমর": 2610,
      "আত্মবিশ্বাস": 2611,
      "আত্মসম্মান": 2612,
      "আত্মনির্ভর": 2613,
      "আত্মসমর্": 2614,
      "অধঃ": 2615,
      "জিত": 2616,
      "জিব্": 2617,
      "একই": 2618,
      "একতা": 2619,
      "একদি": 2620,
      "একঘে": 2621,
      "হিং": 2622,
      "হিন্দু": 2623,
      "কর্ণ": 2624,
      "কর্মে": 2625,
      "মুহূর্ত": 2626,
      "বারও": 2627,
      "সেবা": 2628,
      "ল্পে": 2629,
      "সিড": 2630,
      "সিগারে": 2631,
      "বুরি": 2632,
      "বুদ্ধ": 2633,
      "যাচ": 2634,
      "যাপ": 2635,
      "জনই": 2636,
      "জন্য": 2637,
      "রুটি": 2638,
      "শ্বাসে": 2639,
      "চারা": 2640,
      "চার্য": 2641,
      "পেয়া": 2642,
      "সহীন": 2643,
      "দুয়ার": 2644,
      "স্থলে": 2645,
      "স্থানের": 2646,
      "খেচর": 2647,
      "খেজুর": 2648,
      "খেলোয়া": 2649,
      "কোমল": 2650,
      "কোম্প": 2651,
      "বাদশা": 2652,
      "ক্রিয়": 2653,
      "ডাক": 2654,
      "ডাহু": 2655,
      "পরমা": 2656,
      "পরস্পর": 2657,
      "ত্যক্ষ": 2658,
      "পুষ্": 2659,
      "পুকুর": 2660,
      "ান্তর": 2661,
      "কর্মক্ষেত্র": 2662,
      "কৃষ": 2663,
      "কৃষ্ট": 2664,
      "কৃপণ": 2665,
      "কৃষ্ণ": 2666,
      "অংশবিশেষ": 2667,
      "ঘাতী": 2668,
      "গোলা": 2669,
      "গোচর": 2670,
      "উদ্বি": 2671,
      "উদ্বে": 2672,
      "উদ্ভি": 2673,
      "উদ্বেগ": 2674,
      "উদ্বৃত্ত": 2675,
      "ধাঁ": 2676,
      "ধাক্": 2677,
      "ড়িই": 2678,
      "ড়িটি": 2679,
      "ড়িয়া": 2680,
      "শ্রম": 2681,
      "অক্ষত": 2682,
      "উত্তী": 2683,
      "চুপি": 2684,
      "চুম্ব": 2685,
      "গিন্": 2686,
      "তোষা": 2687,
      "ানায়": 2688,
      "টুনি": 2689,
      "খিচু": 2690,
      "তরমু": 2691,
      "উত্ফুল্": 2692,
      "অর্ণ": 2693,
      "অর্ডার": 2694,
      "করাই": 2695,
      "নারা": 2696,
      "নারী": 2697,
      "আরম্ভ": 2698,
      "সার্": 2699,
      "আবহাওয়া": 2700,
      "পুরে": 2701,
      "পুরো": 2702,
      "লটাকে": 2703,
      "জীবা": 2704,
      "পূর্বে": 2705,
      "দানকারী": 2706,
      "অভয়": 2707,
      "যুগ": 2708,
      "আসমান": 2709,
      "আসক্তি": 2710,
      "গতানুগ": 2711,
      "চর্য": 2712,
      "মোহ": 2713,
      "অনিষ্ট": 2714,
      "অনিশ্চি": 2715,
      "অনিশ্চয়": 2716,
      "গণপরিষ": 2717,
      "ভুল": 2718,
      "ভুবন": 2719,
      "সময়": 2720,
      "ঘুঘু": 2721,
      "বৃদ্ধ": 2722,
      "আলোড়": 2723,
      "অধিবাস": 2724,
      "অধিগ্রহণ": 2725,
      "জারু": 2726,
      "ষাঁ": 2727,
      "ত্যাশি": 2728,
      "ঝাড়া": 2729,
      "ফাজি": 2730,
      "অনামি": 2731,
      "আপত্তি": 2732,
      "আপসহীন": 2733,
      "আমগাছ": 2734,
      "ব্ধ": 2735,
      "ান্ড": 2736,
      "ান্না": 2737,
      "প্রতিযোগ": 2738,
      "প্রতিযোগি": 2739,
      "দোল": 2740,
      "অন্বে": 2741,
      "ভেজা": 2742,
      "অবিচার": 2743,
      "অবিসং": 2744,
      "য়াছিলে": 2745,
      "উচ্চার": 2746,
      "দায়ক": 2747,
      "উন্মুক্ত": 2748,
      "উন্মত্ত": 2749,
      "ঘোড়সওয়ার": 2750,
      "ছাত্রাবাস": 2751,
      "অপ্রস্তু": 2752,
      "অপ্রত্যাশি": 2753,
      "সাহস": 2754,
      "কথায়": 2755,
      "টাইফু": 2756,
      "হাঁট": 2757,
      "মহী": 2758,
      "মহান": 2759,
      "গর্ত": 2760,
      "স্ত্রী": 2761,
      "আড়ষ্ট": 2762,
      "আড়ম্বর": 2763,
      "ট্রলার": 2764,
      "ধর্ষ": 2765,
      "ধর্মান্ত": 2766,
      "পোশা": 2767,
      "মাত্রা": 2768,
      "অঙ্গন": 2769,
      "অঙ্গীকার": 2770,
      "কূল্য": 2771,
      "মন্ড": 2772,
      "যৌথ": 2773,
      "অপরিহার": 2774,
      "অপরিবর্ত": 2775,
      "তরুণ": 2776,
      "অন্যান্য": 2777,
      "বুঝাই": 2778,
      "আস্তরণ": 2779,
      "বাহিত": 2780,
      "অগ্নিকাণ্ড": 2781,
      "প্লা": 2782,
      "আলোকসজ্": 2783,
      "আঁতু": 2784,
      "আধিক": 2785,
      "আধ্যাত্": 2786,
      "ভালোবাস": 2787,
      "অর্থনী": 2788,
      "আইনজ্ঞ": 2789,
      "আনুগ": 2790,
      "আনুকূল্য": 2791,
      "তভাবেই": 2792,
      "অধ্যক্ষ": 2793,
      "অধ্যবসা": 2794,
      "অধ্যাত্ম": 2795,
      "উদ্যান": 2796,
      "উদ্যো": 2797,
      "কম্বু": 2798,
      "দূরদর্শি": 2799,
      "োপকথ": 2800,
      "আহ্বায়": 2801,
      "কথোপকথ": 2802,
      "থেয়": 2803,
      "অক্টোবর": 2804,
      "ইঞ্জি": 2805,
      "কক্ষপথ": 2806,
      "জন্ডি": 2807,
      "অলং": 2808,
      "অলৌকি": 2809,
      "আঙু": 2810,
      "আঙুর": 2811,
      "কবিরাজ": 2812,
      "মৌমাছি": 2813,
      "বিনোদ": 2814,
      "গাঁথু": 2815,
      "আশঙ্": 2816,
      "একাকি": 2817,
      "চর্বি": 2818,
      "ঠোঁ": 2819,
      "আতিথেয়": 2820,
      "গম্বু": 2821,
      "ভাইরা": 2822,
      "অনুষঙ্গ": 2823,
      "টেলিফো": 2824,
      "অনিয়ম": 2825,
      "ধূমপায়": 2826,
      "উড্ড": 2827,
      "কচুরি": 2828,
      "চিহ্ন": 2829,
      "অপেক্ষা": 2830,
      "খাদ্যদ্রব্য": 2831,
      "আফ্রিক": 2832,
      "ভবিষ্যদ্": 2833,
      "আকস্": 2834,
      "আস্ফা": 2835,
      "আন্তর্জা": 2836,
      "ইচ্ছাশক্তি": 2837,
      "গবেষ": 2838,
      "টিকাদার": 2839,
      "ছাঁক": 2840,
      "আলাপচারি": 2841,
      "অম্বু": 2842,
      "অরুণা": 2843,
      "আশ্চর্য": 2844,
      "ইস্পাত": 2845,
      "উচ্ছৃঙ্": 2846,
      "ঝিনু": 2847,
      "বিপদগ্রস্ত": 2848,
      "চিন্তা": 2849,
      "ছায়াছবি": 2850,
      "সিংহ": 2851,
      "অদ্বৈ": 2852,
      "অপ্রাপ্তবয়": 2853,
      "ইন্দ্রিয়": 2854,
      "ঐতিহ": 2855,
      "কীর্তি": 2856,
      "পন্থা": 2857,
      "অনৈতিক": 2858,
      "অতীত": 2859,
      "অকার্যকর": 2860,
      "উড়োজাহাজ": 2861,
      "কঙ্কাল": 2862,
      "কঠিন": 2863,
      "ইজারাদার": 2864,
      "ডুবুরি": 2865,
      "মাধবী": 2866,
      "খাসজমি": 2867,
      "কিংবদন্ত": 2868,
      "স্বর্গ": 2869,
      "আড্ডা": 2870,
      "শ্রেণী": 2871,
      "আমলাতন্ত্র": 2872,
      "আয়োজ": 2873,
      "চতুর্থা": 2874,
      "অলিগলি": 2875,
      "অটোরিকশা": 2876,
      "আধিপত্য": 2877,
      "খতিয়ান": 2878,
      "গন্তব্য": 2879,
      "ডলফি": 2880,
      "পক্ব": 2881,
      "প্রণালী": 2882,
      "প্রতিরো": 2883,
      "অর্ধচন্দ্র": 2884,
      "মূর্তি": 2885,
      "দীর্ঘ": 2886,
      "আমদানি": 2887,
      "ধূমকেতু": 2888,
      "ইঞ্জিনিয়ার": 2889,
      "কীটপতঙ্গ": 2890,
      "জ্যোতি": 2891,
      "ডাইনোসর": 2892,
      "আলিঙ্গ": 2893,
      "আঙ্গু": 2894,
      "আঙ্গিক": 2895,
      "আশীর্": 2896,
      "ইঁদুর": 2897,
      "উচ্ছিষ্ট": 2898,
      "ওষুধ": 2899,
      "গভর্নর": 2900,
      "ঘোষণা": 2901,
      "টমেটো": 2902,
      "ষড়যন্ত্র": 2903,
      "কেঁচো": 2904,
      "তাড়াহু": 2905,
      "উপঢৌক": 2906,
      "তোষামো": 2907,
      "ধর্মান্তরি": 2908,
      "অয়": 2909,
      "অরি": 2910,
      "অচি": 2911,
      "অমু": 2912,
      "অপ্রা": 2913,
      "অস্ত্র": 2914,
      "অচির": 2915,
      "অদল": 2916,
      "অকাজ": 2917,
      "অস্থি": 2918,
      "অশুভ": 2919,
      "অসাধু": 2920,
      "অকৃত্রিম": 2921,
      "অকপট": 2922,
      "অযত্": 2923,
      "অরাজক": 2924,
      "অমৃত": 2925,
      "আক্ষ": 2926,
      "আকার": 2927,
      "আত্ত": 2928,
      "আড়ি": 2929,
      "আমন": 2930,
      "আঠা": 2931,
      "আবেশ": 2932,
      "আকাশ": 2933,
      "আন্দা": 2934,
      "আক্ষেপ": 2935,
      "আউশ": 2936,
      "আবরণ": 2937,
      "আগমন": 2938,
      "আকাঙ্ক্ষা": 2939,
      "আয়ো": 2940,
      "ইস্ত": 2941,
      "ইজ্": 2942,
      "ইবাদ": 2943,
      "ইক্ষু": 2944,
      "উত": 2945,
      "উর্": 2946,
      "উলটা": 2947,
      "উদর": 2948,
      "উজান": 2949,
      "উজানি": 2950,
      "উচ্ছেদ": 2951,
      "ঋদ্ধ": 2952,
      "এসিড": 2953,
      "ওল": 2954,
      "ওকাল": 2955,
      "ওষ্ঠ": 2956,
      "ওস্তা": 2957,
      "ঔজ্জ্বল": 2958,
      "কখ": 2959,
      "কফ": 2960,
      "কংশ": 2961,
      "ককের": 2962,
      "কসহ": 2963,
      "কষ্ট": 2964,
      "কটু": 2965,
      "কীয়": 2966,
      "কড়াই": 2967,
      "কনু": 2968,
      "ককটে": 2969,
      "খত": 2970,
      "খনি": 2971,
      "খলি": 2972,
      "খচ্": 2973,
      "খবর": 2974,
      "গতি": 2975,
      "গরু": 2976,
      "গন্ড": 2977,
      "ঘুর": 2978,
      "ঘ্যান": 2979,
      "চৈ": 2980,
      "চলে": 2981,
      "চ্যা": 2982,
      "চনায়": 2983,
      "ছত্রা": 2984,
      "জই": 2985,
      "জটা": 2986,
      "জতু": 2987,
      "জরায়": 2988,
      "ট্যা": 2989,
      "টগর": 2990,
      "ণীয়": 2991,
      "তঃ": 2992,
      "তরি": 2993,
      "তরে": 2994,
      "তকরণ": 2995,
      "তহু": 2996,
      "থ্য": 2997,
      "দহ": 2998,
      "দটি": 2999,
      "দস্থ": 3000,
      "দয়ের": 3001,
      "দৈব": 3002,
      "ধের": 3003,
      "ধ্র": 3004,
      "ধনে": 3005,
      "ধিক": 3006,
      "ধীন": 3007,
      "নবা": 3008,
      "নানি": 3009,
      "নলক": 3010,
      "পশু": 3011,
      "পতির": 3012,
      "পড়াই": 3013,
      "পূর": 3014,
      "পঞ্চ": 3015,
      "পরাধ": 3016,
      "পলাশ": 3017,
      "ফ্র": 3018,
      "ফাই": 3019,
      "বপ": 3020,
      "বকু": 3021,
      "বনের": 3022,
      "বীকে": 3023,
      "ভী": 3024,
      "ভৃ": 3025,
      "ভদ্র": 3026,
      "মধ": 3027,
      "ম্র": 3028,
      "মহারা": 3029,
      "যতি": 3030,
      "যদি": 3031,
      "যমু": 3032,
      "রও": 3033,
      "রড": 3034,
      "রস": 3035,
      "রার": 3036,
      "রটা": 3037,
      "রচনা": 3038,
      "লন": 3039,
      "লতে": 3040,
      "লতার": 3041,
      "লানো": 3042,
      "লীয়": 3043,
      "শখ": 3044,
      "শব": 3045,
      "শয়ের": 3046,
      "শরী": 3047,
      "শত্রু": 3048,
      "ষার": 3049,
      "সদ্য": 3050,
      "সভার": 3051,
      "সঠিক": 3052,
      "হঙ্গ": 3053,
      "হওয়া": 3054,
      "াতু": 3055,
      "িও": 3056,
      "ীটি": 3057,
      "ীতে": 3058,
      "ুতে": 3059,
      "ুষ্ট": 3060,
      "ূত": 3061,
      "ূক্তি": 3062,
      "্বাস": 3063,
      "ৎস": 3064,
      "ড়ম্বর": 3065,
      "য়গিরি": 3066,
      "কেবি": 3067,
      "্যস্ত": 3068,
      "্যক্ত": 3069,
      "ানার": 3070,
      "কাদ": 3071,
      "কাফ": 3072,
      "কাশি": 3073,
      "কাহি": 3074,
      "কামার": 3075,
      "কাশে": 3076,
      "কাষ্ঠ": 3077,
      "কাপড়": 3078,
      "টিয়ে": 3079,
      "টিসু": 3080,
      "বাং": 3081,
      "বাপ": 3082,
      "বাতা": 3083,
      "বাদের": 3084,
      "বাসি": 3085,
      "বাগি": 3086,
      "বাস্তু": 3087,
      "তাবু": 3088,
      "বিলো": 3089,
      "বিশা": 3090,
      "বিকাল": 3091,
      "বিনী": 3092,
      "বিতর": 3093,
      "বিজো": 3094,
      "বিশিষ্ট": 3095,
      "বিহঙ্গ": 3096,
      "রাও": 3097,
      "রাটা": 3098,
      "রাহ্": 3099,
      "লাগ": 3100,
      "অনশন": 3101,
      "ক্ষত": 3102,
      "ক্ষমা": 3103,
      "নাট": 3104,
      "নাবি": 3105,
      "নামি": 3106,
      "নাপিত": 3107,
      "তিন": 3108,
      "তিটি": 3109,
      "তিয়ার": 3110,
      "য়াও": 3111,
      "বেটি": 3112,
      "লিতে": 3113,
      "পাঁ": 3114,
      "পাক": 3115,
      "পাগ": 3116,
      "পাটি": 3117,
      "পাড়া": 3118,
      "পাশা": 3119,
      "পাদ্য": 3120,
      "পাতের": 3121,
      "পাতিক": 3122,
      "পাউড": 3123,
      "পাহাড়": 3124,
      "ন্দে": 3125,
      "প্রশ্": 3126,
      "প্রহার": 3127,
      "প্রদর্শ": 3128,
      "কার্যা": 3129,
      "কারসাজি": 3130,
      "কারচুপি": 3131,
      "মাঝ": 3132,
      "মাস": 3133,
      "মাতৃ": 3134,
      "ভাল": 3135,
      "ভাস": 3136,
      "ভাজন": 3137,
      "ভাষণ": 3138,
      "স্কু": 3139,
      "রিতে": 3140,
      "গুলা": 3141,
      "গুনা": 3142,
      "গুপ্ত": 3143,
      "গুণ্ঠ": 3144,
      "গুন্ডা": 3145,
      "সাদের": 3146,
      "সাগর": 3147,
      "সামান্য": 3148,
      "্যাপ্ত": 3149,
      "ড়িত": 3150,
      "ড়ানোর": 3151,
      "দেখাই": 3152,
      "দাম": 3153,
      "দাবি": 3154,
      "ভিলাষ": 3155,
      "ভিখারি": 3156,
      "অনুশো": 3157,
      "অনুন্ন": 3158,
      "অনুধ্য": 3159,
      "অনুজ্ঞা": 3160,
      "অনুকল্প": 3161,
      "অনুকূ": 3162,
      "অনুক্রম": 3163,
      "অনুরাগ": 3164,
      "অনুচ্ছেদ": 3165,
      "অনুমো": 3166,
      "চিড়িয়া": 3167,
      "মিলা": 3168,
      "মিনী": 3169,
      "মিকতা": 3170,
      "চাঁ": 3171,
      "চাপ": 3172,
      "চাকে": 3173,
      "চাতে": 3174,
      "চাকু": 3175,
      "চাবু": 3176,
      "চাঞ্চল": 3177,
      "চাকচি": 3178,
      "ছেম": 3179,
      "গাম্": 3180,
      "কুম": 3181,
      "কুশ": 3182,
      "কুরে": 3183,
      "কুরের": 3184,
      "কুকুর": 3185,
      "হাও": 3186,
      "হাতা": 3187,
      "হালা": 3188,
      "হাতি": 3189,
      "হাজী": 3190,
      "হাজার": 3191,
      "নেওয়া": 3192,
      "দিঘি": 3193,
      "অপচয়": 3194,
      "অপবিত্র": 3195,
      "অপছন্দ": 3196,
      "অপদস্থ": 3197,
      "অপরাহ্": 3198,
      "উপকার": 3199,
      "উপদে": 3200,
      "উপসং": 3201,
      "উপদেশ": 3202,
      "উপদ্র": 3203,
      "উপক্রম": 3204,
      "উপলক্ষ": 3205,
      "উপমহা": 3206,
      "উপযোগি": 3207,
      "উপধারা": 3208,
      "উপশম": 3209,
      "উপপাদ্য": 3210,
      "খাও": 3211,
      "খালু": 3212,
      "খাটো": 3213,
      "ড়াও": 3214,
      "জ্বা": 3215,
      "অভিনে": 3216,
      "অভিন্ন": 3217,
      "অভিনব": 3218,
      "অভিসন্": 3219,
      "অভিনয়": 3220,
      "অভিপ্রায়": 3221,
      "অভিভাষণ": 3222,
      "শাখা": 3223,
      "থাকি": 3224,
      "থাগার": 3225,
      "ত্তর": 3226,
      "কিতা": 3227,
      "অব্": 3228,
      "অবচে": 3229,
      "অবজ্ঞা": 3230,
      "অবরোধ": 3231,
      "অবসাদ": 3232,
      "অবগাহ": 3233,
      "অবশিষ্ট": 3234,
      "অবগুণ্ঠ": 3235,
      "মানের": 3236,
      "ছাওয়া": 3237,
      "ছাঁচ": 3238,
      "ত্মক": 3239,
      "মেয়ে": 3240,
      "পিঠ": 3241,
      "পিছা": 3242,
      "ন্দ্য": 3243,
      "িকতার": 3244,
      "আত্মতু": 3245,
      "আত্মবলি": 3246,
      "আত্মশক্তি": 3247,
      "আত্মসংয": 3248,
      "আত্মজীবনী": 3249,
      "আত্মসাৎ": 3250,
      "অধী": 3251,
      "অধর্": 3252,
      "অধীর": 3253,
      "অধোগ": 3254,
      "জিহা": 3255,
      "একট": 3256,
      "একশ": 3257,
      "একচে": 3258,
      "একতর": 3259,
      "একতারা": 3260,
      "একনিষ্ঠ": 3261,
      "হিসা": 3262,
      "বার্ত": 3263,
      "বারান্": 3264,
      "সেন": 3265,
      "সেনা": 3266,
      "বুড়ো": 3267,
      "কেরসি": 3268,
      "যাদু": 3269,
      "যাপন": 3270,
      "জনও": 3271,
      "শ্বে": 3272,
      "সহকর্ম": 3273,
      "দুখ": 3274,
      "পরিদর্শ": 3275,
      "স্থিত": 3276,
      "স্থানে": 3277,
      "ব্যস্ত": 3278,
      "সংসার": 3279,
      "সংস্থা": 3280,
      "সংগঠ": 3281,
      "খেলে": 3282,
      "খেসার": 3283,
      "কোর্": 3284,
      "কোদা": 3285,
      "ডালিয়া": 3286,
      "পরমান": 3287,
      "অন্ত্যে": 3288,
      "ান্ত্র": 3289,
      "কর্মক্ষম": 3290,
      "কর্মপদ্ধ": 3291,
      "কর্মপরিকল্প": 3292,
      "প্রাথ": 3293,
      "কাঁদি": 3294,
      "কাঁঠা": 3295,
      "অংশটুকু": 3296,
      "গোহাড়": 3297,
      "উদ্বুদ্ধ": 3298,
      "উদ্বাস্তু": 3299,
      "ধাঙ্গ": 3300,
      "অক্ষা": 3301,
      "উত্ত্যক্ত": 3302,
      "ড়ির": 3303,
      "টুকরা": 3304,
      "ানিতে": 3305,
      "উত্পা": 3306,
      "উত্পাত": 3307,
      "উত্সর্গ": 3308,
      "উত্পত্তি": 3309,
      "অর্পণ": 3310,
      "অর্বাচ": 3311,
      "অর্ধাঙ্গ": 3312,
      "আরশি": 3313,
      "আরক্ত": 3314,
      "আরজি": 3315,
      "আরোপ": 3316,
      "আবীর": 3317,
      "আবদ্ধ": 3318,
      "ণাঙ্গ": 3319,
      "খোসা": 3320,
      "অভদ্র": 3321,
      "গ্ধ": 3322,
      "চরকি": 3323,
      "রাজ্য": 3324,
      "অনিন্দ্য": 3325,
      "সমস্যা": 3326,
      "ঘুম": 3327,
      "যন্ত্রণা": 3328,
      "যন্ত্রদান": 3329,
      "যন্ত্রশিল্প": 3330,
      "করণের": 3331,
      "উৎসাহ": 3332,
      "চলমান": 3333,
      "কর্তন": 3334,
      "কর্ত্র": 3335,
      "ভূত": 3336,
      "ভূষণ": 3337,
      "নটায়": 3338,
      "সরো": 3339,
      "সম্ভব": 3340,
      "সম্পন্ন": 3341,
      "ময়ূর": 3342,
      "অগ্রগা": 3343,
      "ঝাঁ": 3344,
      "ফাল্": 3345,
      "অনাথ": 3346,
      "অনাড়ম্বর": 3347,
      "আমীন": 3348,
      "আমন্ত্র": 3349,
      "ব্ধি": 3350,
      "অন্তর্ধান": 3351,
      "অন্তর্বর্তী": 3352,
      "দাঁড়াই": 3353,
      "খুশি": 3354,
      "হেলা": 3355,
      "অবিশ্বাস": 3356,
      "অবিলম্": 3357,
      "অবিচ্ছিন্ন": 3358,
      "ন্যায": 3359,
      "রীতি": 3360,
      "য়াছিস": 3361,
      "য়াছিলি": 3362,
      "মৃদু": 3363,
      "যেখান": 3364,
      "বসাই": 3365,
      "বসবাস": 3366,
      "নির্মা": 3367,
      "পাইকারি": 3368,
      "উন্মো": 3369,
      "উন্মেষ": 3370,
      "অগ্ন্যা": 3371,
      "ছাত্রলী": 3372,
      "ঘটনা": 3373,
      "ধমকাই": 3374,
      "অপ্রতুল": 3375,
      "অপ্রত্যক্ষ": 3376,
      "পূর্বক": 3377,
      "অকালমৃত্যু": 3378,
      "অকালপ্রয়া": 3379,
      "কথাসাহিত্য": 3380,
      "কথাবার্ত": 3381,
      "তৃণ": 3382,
      "নর্ত": 3383,
      "হাঁস": 3384,
      "উপাদান": 3385,
      "ল্যান্ড": 3386,
      "কণ্ঠের": 3387,
      "কণ্ঠস্বর": 3388,
      "আড়ত": 3389,
      "আড়ৎ": 3390,
      "ট্রি": 3391,
      "পোস্ত": 3392,
      "উত্তরদা": 3393,
      "উত্তরপত্র": 3394,
      "মন্দি": 3395,
      "ইতিবাচক": 3396,
      "কায়দা": 3397,
      "অন্যমন": 3398,
      "কারিগর": 3399,
      "আস্তি": 3400,
      "আস্তানা": 3401,
      "অভ্যস্ত": 3402,
      "আশ্রম": 3403,
      "বয়স": 3404,
      "জীবনের": 3405,
      "ক্ষেত্রে": 3406,
      "অগ্নিপরীক্ষা": 3407,
      "আখের": 3408,
      "ওয়ারি": 3409,
      "গৃহে": 3410,
      "ব্রত": 3411,
      "ব্রা": 3412,
      "সমাজব্যবস্থা": 3413,
      "ভ্রান্ত": 3414,
      "শর্ত": 3415,
      "ভালোবাসা": 3416,
      "অর্থপূর্ণ": 3417,
      "আশাভঙ্গ": 3418,
      "পরামান": 3419,
      "ডায়রিয়া": 3420,
      "ডায়বেটি": 3421,
      "আবাসভূমি": 3422,
      "অন্ধকার": 3423,
      "উচ্চশিক্ষা": 3424,
      "আহ্লা": 3425,
      "জনেরা": 3426,
      "ঝুম": 3427,
      "পক্ষের": 3428,
      "স্বাস্থ": 3429,
      "স্বামী": 3430,
      "আত্মপ্রচার": 3431,
      "আত্মপ্রত্য": 3432,
      "আত্মপ্রকাশ": 3433,
      "উত্তরাধি": 3434,
      "ইংলিশ": 3435,
      "চামচা": 3436,
      "আর্জি": 3437,
      "উন্নয়ন": 3438,
      "কটূক্তি": 3439,
      "বন্ট": 3440,
      "ব্যাপার": 3441,
      "সত্যবাদ": 3442,
      "কারণগুু": 3443,
      "মৌসু": 3444,
      "সন্তান": 3445,
      "সন্তুষ্ট": 3446,
      "বিনোদন": 3447,
      "অপূর্ব": 3448,
      "অপূর্ণাঙ্গ": 3449,
      "শাসন": 3450,
      "আপেল": 3451,
      "গামছা": 3452,
      "জায়গা": 3453,
      "অন্তরঙ্গ": 3454,
      "যোগাযোগ": 3455,
      "অবাস্ত": 3456,
      "একাংশ": 3457,
      "নিরাপত্ত": 3458,
      "ডাকাত": 3459,
      "ঈদগা": 3460,
      "ঈদগাহ": 3461,
      "আশ্রয়প্রার্থ": 3462,
      "উদ্ধৃতাংশ": 3463,
      "আমিষ": 3464,
      "এখতিয়ার": 3465,
      "কদবে": 3466,
      "অনুশীলনী": 3467,
      "আন্তরিক": 3468,
      "উঠান": 3469,
      "অপারেশন": 3470,
      "অপারেটর": 3471,
      "আবৃত্তি": 3472,
      "অন্তর্ভুক্ত": 3473,
      "অক্টোপাস": 3474,
      "অম্ল": 3475,
      "আত্মা": 3476,
      "আগ্নেয়গিরি": 3477,
      "উচ্ছ্বাস": 3478,
      "সৌরভ": 3479,
      "সৌরমণ্ড": 3480,
      "অনির্বা": 3481,
      "কর্তৃত্ব": 3482,
      "মীমাংসা": 3483,
      "ঐতিহাস": 3484,
      "পন্থ": 3485,
      "মুরগী": 3486,
      "যানবাহ": 3487,
      "ক্ষতিপূরণ": 3488,
      "প্রজাপতি": 3489,
      "আরোহণ": 3490,
      "অঙ্কন": 3491,
      "পৌঁছ": 3492,
      "ঘূর্ণিঝড়": 3493,
      "আসামি": 3494,
      "সংশয়": 3495,
      "বাজানো": 3496,
      "গ্রীষ্ম": 3497,
      "পেঁপে": 3498,
      "অংক": 3499,
      "এমনি": 3500,
      "অনভ্যস্ত": 3501,
      "ভাষী": 3502,
      "অভিশংস": 3503,
      "অধস্তন": 3504,
      "জিরাফ": 3505,
      "সংগীত": 3506,
      "অন্তঃপুর": 3507,
      "গণিতশাস্ত্র": 3508,
      "এতিমখানা": 3509,
      "কবুতর": 3510,
      "বহিষ্কার": 3511,
      "রংধনু": 3512,
      "সূর্য": 3513,
      "স্পর্শ": 3514,
      "অনুভূতি": 3515,
      "শিঙাড়া": 3516,
      "হিঁচড়া": 3517,
      "প্রাচীর": 3518,
      "অধিবেশন": 3519,
      "উৎপীড়": 3520,
      "অরবিন্দ": 3521,
      "আলোচনা": 3522,
      "ইত্যাদি": 3523,
      "তত্ত্ব": 3524,
      "নৌকো": 3525,
      "নিরুৎসাহ": 3526,
      "চিতাবাঘ": 3527,
      "উপলব্ধি": 3528,
      "শিঙ্গাড়া": 3529,
      "গ্রন্থাগার": 3530,
      "অন্তরীক্ষ": 3531,
      "টার্গে": 3532,
      "আর্তনা": 3533,
      "আরোগ্য": 3534,
      "চরমপন্থা": 3535,
      "ঠিকাদার": 3536,
      "টেলিভিশ": 3537,
      "ইউনিফর্ম": 3538,
      "অকুণ্ঠ": 3539,
      "অযৌক্তিক": 3540,
      "আঞ্চলিক": 3541,
      "আর্থিক": 3542,
      "আভিজাত্য": 3543,
      "ইতস্ত": 3544,
      "উঁচু": 3545,
      "উজাড়": 3546,
      "ধনাগার": 3547,
      "পাধ্যায়": 3548,
      "সাফল্য": 3549,
      "অপ্সর": 3550,
      "কিডনি": 3551,
      "অব্যাহ": 3552,
      "অবলম্বন": 3553,
      "আত্মসমর্পণ": 3554,
      "হিংসু": 3555,
      "উদ্ভিদ": 3556,
      "উত্তীর্ণ": 3557,
      "গিন্নী": 3558,
      "জীবাণু": 3559,
      "অন্বেষণ": 3560,
      "আঁতুড়": 3561,
      "আনুগত্য": 3562,
      "একাকিত্ব": 3563,
      "আকস্মিক": 3564,
      "আন্তর্জাতিক": 3565,
      "উচ্ছৃঙ্খল": 3566,
      "অপ্রাপ্তবয়স্": 3567,
      "চতুর্থাংশ": 3568,
      "আশীর্বাদ": 3569,
      "অরিন্দ": 3570,
      "অপ্রাসঙ্গ": 3571,
      "অদলব": 3572,
      "আক্ষরিক": 3573,
      "ইজ্জ": 3574,
      "উতরাই": 3575,
      "ওলন্দা": 3576,
      "কনুই": 3577,
      "চৈত্র": 3578,
      "চাকচিক্য": 3579,
      "গাম্ভীর": 3580,
      "উপসংহার": 3581,
      "উপমহাদেশ": 3582,
      "অভিসন্ধি": 3583,
      "যাদুকর": 3584,
      "অন্ত্যেষ্টি": 3585,
      "অখ": 3586,
      "অস্ত": 3587,
      "অটু": 3588,
      "অম্বর": 3589,
      "অকথ": 3590,
      "অঞ্চল": 3591,
      "অশিক্ষা": 3592,
      "অমান্য": 3593,
      "অমূল্য": 3594,
      "অসমান": 3595,
      "অশোক": 3596,
      "অকৃতকার্য": 3597,
      "অমীমাং": 3598,
      "আহ": 3599,
      "আনা": 3600,
      "আনি": 3601,
      "আয়া": 3602,
      "আপা": 3603,
      "আধা": 3604,
      "আসাম": 3605,
      "আরাম": 3606,
      "ইরান": 3607,
      "ইমাম": 3608,
      "ঈগল": 3609,
      "উই": 3610,
      "উগ্র": 3611,
      "উটার": 3612,
      "উচাই": 3613,
      "উজির": 3614,
      "ঊর্": 3615,
      "এলো": 3616,
      "এবার": 3617,
      "এযাব": 3618,
      "এদিকটা": 3619,
      "ঐকম": 3620,
      "ঐকান্ত": 3621,
      "ওঝা": 3622,
      "ঔদ্ধ": 3623,
      "ঔদার": 3624,
      "কহি": 3625,
      "কষ্টি": 3626,
      "কটির": 3627,
      "কসর": 3628,
      "কদর": 3629,
      "কচক": 3630,
      "কষি": 3631,
      "কনিষ্ঠ": 3632,
      "কঞ্চি": 3633,
      "কসাই": 3634,
      "কস্তুর": 3635,
      "খনিজ": 3636,
      "গড়": 3637,
      "গড়": 3638,
      "গরে": 3639,
      "গলু": 3640,
      "গতির": 3641,
      "গহী": 3642,
      "গঞ্জ": 3643,
      "ঘণ্": 3644,
      "ঘটে": 3645,
      "ঘরের": 3646,
      "ঘনিষ্ঠ": 3647,
      "চই": 3648,
      "চটা": 3649,
      "চটি": 3650,
      "চত্": 3651,
      "চড়": 3652,
      "চনে": 3653,
      "চানা": 3654,
      "চতুর": 3655,
      "চকিত": 3656,
      "ছটা": 3657,
      "ছতর": 3658,
      "জও": 3659,
      "জকে": 3660,
      "জদের": 3661,
      "জংশ": 3662,
      "জানে": 3663,
      "জৈব": 3664,
      "জন্তু": 3665,
      "ঝল": 3666,
      "ঝো": 3667,
      "ঝোপ": 3668,
      "টহ": 3669,
      "টটা": 3670,
      "টেই": 3671,
      "টফি": 3672,
      "ড্ড": 3673,
      "ণত": 3674,
      "ণয়": 3675,
      "ণাই": 3676,
      "তলা": 3677,
      "তলি": 3678,
      "তলায়": 3679,
      "তান্ত্র": 3680,
      "থলে": 3681,
      "দব": 3682,
      "দভ": 3683,
      "দরা": 3684,
      "দমন": 3685,
      "ধক": 3686,
      "ধব": 3687,
      "ধৈ": 3688,
      "ধরি": 3689,
      "ধীর": 3690,
      "ধনিয়া": 3691,
      "নত": 3692,
      "নগে": 3693,
      "নয়ন": 3694,
      "নগর": 3695,
      "নম্র": 3696,
      "পদার": 3697,
      "ফত": 3698,
      "ফলে": 3699,
      "ফকির": 3700,
      "বড়": 3701,
      "বলই": 3702,
      "বড়াই": 3703,
      "বশ্য": 3704,
      "বকুল": 3705,
      "ভান": 3706,
      "ভয়ে": 3707,
      "ভক্ত": 3708,
      "ভট্টা": 3709,
      "মগ": 3710,
      "মম": 3711,
      "ম্য": 3712,
      "রঙ": 3713,
      "রটি": 3714,
      "রম্": 3715,
      "রহি": 3716,
      "রান্": 3717,
      "রকম": 3718,
      "লভ": 3719,
      "লড়": 3720,
      "লান্ত": 3721,
      "লঘু": 3722,
      "লগ্ন": 3723,
      "শ্যা": 3724,
      "শহী": 3725,
      "শংসা": 3726,
      "ষণ্ড": 3727,
      "সন": 3728,
      "সল": 3729,
      "সৎ": 3730,
      "সবে": 3731,
      "সবু": 3732,
      "সন্ন": 3733,
      "সরাই": 3734,
      "সতেজ": 3735,
      "সহায়": 3736,
      "সতর্ক": 3737,
      "সক্রিয়": 3738,
      "হট": 3739,
      "হয়": 3740,
      "হকার": 3741,
      "হ্যা": 3742,
      "াকে": 3743,
      "িটি": 3744,
      "িনী": 3745,
      "ীটা": 3746,
      "ুঝ": 3747,
      "ুন": 3748,
      "ুয়া": 3749,
      "েছে": 3750,
      "োৎ": 3751,
      "োগা": 3752,
      "্মান": 3753,
      "ড়ান": 3754,
      "ড়টি": 3755,
      "য়ও": 3756,
      "কেলে": 3757,
      "্যার": 3758,
      "ানও": 3759,
      "কাও": 3760,
      "কাকি": 3761,
      "কাশ্": 3762,
      "কাকতা": 3763,
      "কাঙ্গা": 3764,
      "কাছার": 3765,
      "কাতরা": 3766,
      "কাস্তে": 3767,
      "টিটা": 3768,
      "তেমন": 3769,
      "তেলঙ্গ": 3770,
      "র্ড": 3771,
      "বাগান": 3772,
      "বাধাই": 3773,
      "তালা": 3774,
      "তাপে": 3775,
      "বিরি": 3776,
      "বিড়": 3777,
      "বিদা": 3778,
      "বিচার": 3779,
      "বিগ্রহ": 3780,
      "বিপথ": 3781,
      "বিরুদ্ধ": 3782,
      "রাটি": 3783,
      "রাজি": 3784,
      "অনশ": 3785,
      "অনর্থ": 3786,
      "অনবধান": 3787,
      "ক্ষাই": 3788,
      "ক্ষিত": 3789,
      "নাচি": 3790,
      "নাকারী": 3791,
      "তিমি": 3792,
      "নিবার": 3793,
      "নিলাম": 3794,
      "নিমো": 3795,
      "নিজে": 3796,
      "নিবেদ": 3797,
      "য়াজ": 3798,
      "বেয়া": 3799,
      "বেকার": 3800,
      "বেগু": 3801,
      "বেলায়": 3802,
      "পাকা": 3803,
      "পালি": 3804,
      "পাষণ্ড": 3805,
      "প্রমা": 3806,
      "প্রতী": 3807,
      "প্রলয়": 3808,
      "প্রফুল্": 3809,
      "কারক": 3810,
      "কারখানা": 3811,
      "মাছ": 3812,
      "মায়": 3813,
      "মামি": 3814,
      "স্কুল": 3815,
      "লোভ": 3816,
      "রিত": 3817,
      "ত্রি": 3818,
      "সাক্ষা": 3819,
      "্যাস": 3820,
      "্যাকে": 3821,
      "্যায়ন": 3822,
      "ড়ন": 3823,
      "দেই": 3824,
      "দেবর": 3825,
      "দাস": 3826,
      "দাতে": 3827,
      "দাদা": 3828,
      "দাদী": 3829,
      "দাবী": 3830,
      "দ্দ": 3831,
      "দ্বিত": 3832,
      "ষ্ক": 3833,
      "অনুরা": 3834,
      "অনুল্": 3835,
      "অনুঘট": 3836,
      "অনুরূপ": 3837,
      "অনুবিভাগ": 3838,
      "চিকি": 3839,
      "মিল": 3840,
      "মিশ": 3841,
      "মিলে": 3842,
      "চাষ": 3843,
      "চাটি": 3844,
      "চাবি": 3845,
      "চালা": 3846,
      "চাচি": 3847,
      "চাকর": 3848,
      "গাছে": 3849,
      "গাড়ি": 3850,
      "গাজর": 3851,
      "কুচি": 3852,
      "জাম": 3853,
      "জালে": 3854,
      "জামান": 3855,
      "হাল": 3856,
      "হাসা": 3857,
      "হাকি": 3858,
      "হাসি": 3859,
      "দিদি": 3860,
      "দিকের": 3861,
      "করদা": 3862,
      "করশ্": 3863,
      "অপক্ষ": 3864,
      "অপভ্র": 3865,
      "অপব্যয়": 3866,
      "উপমা": 3867,
      "উপচার": 3868,
      "উপযোগ": 3869,
      "উপভাষা": 3870,
      "উপকূল": 3871,
      "উপসাগর": 3872,
      "খায়ে": 3873,
      "খাতের": 3874,
      "তারপর": 3875,
      "অভিমুখ": 3876,
      "অভিষি": 3877,
      "অভিযান": 3878,
      "অভিলাষ": 3879,
      "অভিযোগ": 3880,
      "শাটা": 3881,
      "শামু": 3882,
      "ত্ত্": 3883,
      "কিতে": 3884,
      "অবদান": 3885,
      "অবলোক": 3886,
      "অবুঝ": 3887,
      "ছাড়া": 3888,
      "ছালট": 3889,
      "মেলো": 3890,
      "পিসি": 3891,
      "পিঠা": 3892,
      "পিতৃ": 3893,
      "পিউটার": 3894,
      "চ্ছিলো": 3895,
      "িকের": 3896,
      "িকদের": 3897,
      "আত্মকর্ম": 3898,
      "আত্মত্যা": 3899,
      "আত্মপরিচয়": 3900,
      "আত্মোৎ": 3901,
      "আত্মনিবেদ": 3902,
      "জিবি": 3903,
      "কালই": 3904,
      "কালকে": 3905,
      "একদ": 3906,
      "একটি": 3907,
      "একগুঁ": 3908,
      "কর্কট": 3909,
      "কর্পূর": 3910,
      "মুকু": 3911,
      "বার্": 3912,
      "বারের": 3913,
      "রেও": 3914,
      "সেখান": 3915,
      "নীতি": 3916,
      "তুচ্ছ": 3917,
      "সির": 3918,
      "বুভু": 3919,
      "বুদ্ধি": 3920,
      "জ্ঞানের": 3921,
      "কেরই": 3922,
      "যাও": 3923,
      "যামিনী": 3924,
      "রুখ": 3925,
      "রুমা": 3926,
      "বাসন": 3927,
      "সহযোগ": 3928,
      "সহজল": 3929,
      "সহযোগি": 3930,
      "দুধ": 3931,
      "দুনিয়া": 3932,
      "পরিষ্কার": 3933,
      "স্থাই": 3934,
      "লুক": 3935,
      "সংগত": 3936,
      "সংখ্যা": 3937,
      "সংকট": 3938,
      "খেতাব": 3939,
      "ওয়াদা": 3940,
      "দারি": 3941,
      "দারোগা": 3942,
      "কোণ": 3943,
      "কোথা": 3944,
      "কোষ্ঠ": 3945,
      "পরম": 3946,
      "হার্": 3947,
      "পুঁ": 3948,
      "পুলি": 3949,
      "পুতু": 3950,
      "কর্মকুশ": 3951,
      "প্রাসাদ": 3952,
      "সুন্দর": 3953,
      "দেশের": 3954,
      "দেশদ্র": 3955,
      "ঘাতে": 3956,
      "ঘাতের": 3957,
      "ঘাতই": 3958,
      "শুন": 3959,
      "গোখ": 3960,
      "গোয়ে": 3961,
      "উদ্বোধ": 3962,
      "উদ্দাম": 3963,
      "ধাতু": 3964,
      "ড়িয়ে": 3965,
      "উত্তপ্ত": 3966,
      "টেবি": 3967,
      "চুন": 3968,
      "মনুষ": 3969,
      "গিয়া": 3970,
      "গিয়ে": 3971,
      "গির্জা": 3972,
      "তোমার": 3973,
      "উত্স": 3974,
      "উত্সব": 3975,
      "উত্সাহি": 3976,
      "উত্কর্ষ": 3977,
      "উত্কৃষ্ট": 3978,
      "অর্জন": 3979,
      "অর্চনা": 3980,
      "আরব": 3981,
      "ধার্": 3982,
      "শেখা": 3983,
      "সারে": 3984,
      "ভাবনা": 3985,
      "আবক্ষ": 3986,
      "আবছা": 3987,
      "আবডা": 3988,
      "পুরু": 3989,
      "পুরস্": 3990,
      "লটায়": 3991,
      "মেরই": 3992,
      "জীবি": 3993,
      "জীর্ণ": 3994,
      "খোশ": 3995,
      "অভে": 3996,
      "অভয়া": 3997,
      "অভূত": 3998,
      "দীঘি": 3999,
      "আসক্ত": 4000,
      "আসবাব": 4001,
      "মোহর": 4002,
      "ক্ষেপণ": 4003,
      "গণঅভ্য": 4004,
      "গণতান্ত্র": 4005,
      "জেলে": 4006,
      "স্থায়ী": 4007,
      "ধুলো": 4008,
      "ভুট্": 4009,
      "সমস্ত": 4010,
      "বৃহ": 4011,
      "আলোকরশ্": 4012,
      "জোরা": 4013,
      "জোয়ার": 4014,
      "দৃঢ়": 4015,
      "করণে": 4016,
      "উৎপাদ": 4017,
      "উৎকোচ": 4018,
      "জার্মান": 4019,
      "দৌড়া": 4020,
      "ড়ায়": 4021,
      "কর্তারা": 4022,
      "ড়েঘর": 4023,
      "ভাগের": 4024,
      "কলঙ্": 4025,
      "ফিরি": 4026,
      "সম্পদ": 4027,
      "ময়দান": 4028,
      "অগ্রসর": 4029,
      "অগ্রিম": 4030,
      "অগ্রহায়": 4031,
      "বেরি": 4032,
      "বাহী": 4033,
      "বাহু": 4034,
      "অনাদি": 4035,
      "আপদ": 4036,
      "আপস": 4037,
      "ডিঙ": 4038,
      "কালেই": 4039,
      "আয়তন": 4040,
      "অন্তর্নি": 4041,
      "অন্তর্বাস": 4042,
      "অন্তর্মুখ": 4043,
      "অন্তর্দৃষ্টি": 4044,
      "দোষা": 4045,
      "সেরেস্তা": 4046,
      "তীক্ষ্ম": 4047,
      "ভেট": 4048,
      "খুকু": 4049,
      "ন্যায়": 4050,
      "ন্যাসিক": 4051,
      "যেমন": 4052,
      "গ্রহণযোগ্য": 4053,
      "নির্বা": 4054,
      "পাইলট": 4055,
      "ঘাতক": 4056,
      "ঘোষণা": 4057,
      "বর্ধ": 4058,
      "বর্ষা": 4059,
      "নিয়ম": 4060,
      "হাঁপা": 4061,
      "মহল": 4062,
      "মহলে": 4063,
      "অমঙ্গল": 4064,
      "গর্জন": 4065,
      "গর্দভ": 4066,
      "ার্থে": 4067,
      "ছোব": 4068,
      "কার্যপ্রণালী": 4069,
      "কণ্ঠে": 4070,
      "পাত্রী": 4071,
      "আবেদ": 4072,
      "পোলি": 4073,
      "মাত্রায়": 4074,
      "যোদ্ধা": 4075,
      "যৌগ": 4076,
      "অপরিচ্ছন্ন": 4077,
      "সর্বনা": 4078,
      "কারিতা": 4079,
      "বুঝি": 4080,
      "মৃত্যুর": 4081,
      "আস্তে": 4082,
      "বাহিনী": 4083,
      "আলগা": 4084,
      "নবজাত": 4085,
      "পর্ব": 4086,
      "বয়স্ক": 4087,
      "আখ্যান": 4088,
      "গৃহি": 4089,
      "সঙ্গে": 4090,
      "্যেও": 4091,
      "ব্রক্ষ্ম": 4092,
      "অংশগ্রহণকারী": 4093,
      "শোয়াই": 4094,
      "ঘনফু": 4095,
      "ধ্বংস": 4096,
      "আইনানুগ": 4097,
      "আইনসংগত": 4098,
      "আনুপাতিক": 4099,
      "ঢালাই": 4100,
      "মানুষের": 4101,
      "ডায়মন্ড": 4102,
      "আলাদা": 4103,
      "এলাহী": 4104,
      "কতক": 4105,
      "কয়েদ": 4106,
      "কম্বল": 4107,
      "কম্পিউটার": 4108,
      "হীনা": 4109,
      "অপরাধবোধ": 4110,
      "অন্ধ্র": 4111,
      "অন্ধত্ব": 4112,
      "আনম": 4113,
      "আবির": 4114,
      "উদয়": 4115,
      "উদ্যা": 4116,
      "কথার": 4117,
      "কৌতু": 4118,
      "দক্ষি": 4119,
      "উত্তরাংশ": 4120,
      "ইঞ্চি": 4121,
      "উজ্জল": 4122,
      "সরাসরি": 4123,
      "বাড়িতে": 4124,
      "ক্ষত্রিয়": 4125,
      "কারণসমূ": 4126,
      "চিত্তবিনোদন": 4127,
      "সূচক": 4128,
      "বাবুর": 4129,
      "অপূর্ণ": 4130,
      "শাসনের": 4131,
      "অব্যবস্থা": 4132,
      "বড়শী": 4133,
      "মন্ত্রী": 4134,
      "গাঁও": 4135,
      "সুখদুঃখ": 4136,
      "উদ্ভাবনী": 4137,
      "অবাধ্য": 4138,
      "ঠোঙা": 4139,
      "ধনহার": 4140,
      "নিরাশ": 4141,
      "প্রাণনাশ": 4142,
      "খোঁচাই": 4143,
      "আবেদনকারী": 4144,
      "আংশিক": 4145,
      "আতিশয": 4146,
      "ঔষধা": 4147,
      "চটপটি": 4148,
      "ঠিকানা": 4149,
      "ধোঁ": 4150,
      "ক্ষয়ক্ষ": 4151,
      "অনুষদ": 4152,
      "দৃষ্টান্ত": 4153,
      "আওয়াল": 4154,
      "চলাচল": 4155,
      "দশমি": 4156,
      "সওদা": 4157,
      "উচ্চাকাঙ্ক্ষা": 4158,
      "উচ্চাভিলাষ": 4159,
      "অমর্ত্য": 4160,
      "গর্ভধার": 4161,
      "আকন্দ": 4162,
      "গবেষণা": 4163,
      "ঘৃণ্য": 4164,
      "চতুষ্": 4165,
      "তেজপা": 4166,
      "গুনগুন": 4167,
      "কুঁজো": 4168,
      "কুঁড়েঘর": 4169,
      "অপর্যাপ্ত": 4170,
      "যাবজ্": 4171,
      "খিলাফ": 4172,
      "আবৃত": 4173,
      "ইউনিয়ন": 4174,
      "কড়ক": 4175,
      "কড়ম": 4176,
      "চমৎকার": 4177,
      "অভ্যাস": 4178,
      "অভ্যাগত": 4179,
      "কর্তৃপক্ষ": 4180,
      "অদ্বয়": 4181,
      "আতশ": 4182,
      "ঐক্যবদ্ধ": 4183,
      "কীর্ত": 4184,
      "ঢেঁকি": 4185,
      "তৈরী": 4186,
      "কাণ্ডজ্ঞান": 4187,
      "অনৈক্য": 4188,
      "স্পষ্ট": 4189,
      "সাজানো": 4190,
      "আবাহনী": 4191,
      "আকর্ষণীয়": 4192,
      "কঙ্কর": 4193,
      "গন্ধক": 4194,
      "রমজান": 4195,
      "রানী": 4196,
      "বিবেচনা": 4197,
      "ক্ষিপ্র": 4198,
      "জাহান্না": 4199,
      "আয়তক্ষেত্র": 4200,
      "অগোছা": 4201,
      "অফিস": 4202,
      "ইন্ডি": 4203,
      "ঔপন্যাসিক": 4204,
      "কবরস্থান": 4205,
      "খদ্দের": 4206,
      "ঘটিত": 4207,
      "ছদ্মনাম": 4208,
      "পল্লী": 4209,
      "কাঠগড়া": 4210,
      "চাঁদনী": 4211,
      "অভ্যন্তর": 4212,
      "খারিজ": 4213,
      "আধুনিকা": 4214,
      "অট্টালি": 4215,
      "অট্টালিকা": 4216,
      "পঞ্চা": 4217,
      "পশ্চিম": 4218,
      "বিছানা": 4219,
      "নাগরি": 4220,
      "আত্মরক্ষা": 4221,
      "কালীপুজো": 4222,
      "একনায়কত": 4223,
      "পুনর্": 4224,
      "সুবিধা": 4225,
      "অক্ষরেখা": 4226,
      "ফুসফু": 4227,
      "যন্ত্রবিৎ": 4228,
      "আল্লাহ": 4229,
      "তৎপর": 4230,
      "ুত্থ": 4231,
      "সাংবাদি": 4232,
      "তারিখ": 4233,
      "প্রাঙ্গণ": 4234,
      "উত্থাপন": 4235,
      "আবর্জনা": 4236,
      "স্বপ্ন": 4237,
      "অগ্ন্যুৎ": 4238,
      "আনুষ্ঠানিক": 4239,
      "দোষারোপ": 4240,
      "পৃথিবী": 4241,
      "অচলাবস্থা": 4242,
      "আক্কেল": 4243,
      "ইফতার": 4244,
      "ইরাক": 4245,
      "ইমারত": 4246,
      "ইন্ধন": 4247,
      "উদীচ": 4248,
      "কণ্টক": 4249,
      "কষাকষি": 4250,
      "খটখ": 4251,
      "টউশনি": 4252,
      "তহবি": 4253,
      "রপ্তানি": 4254,
      "কাঠামো": 4255,
      "টিকটিকি": 4256,
      "তেঁতু": 4257,
      "বিজ্ঞাপ": 4258,
      "পাটাত": 4259,
      "প্রশ্রয়": 4260,
      "কুন্ডলী": 4261,
      "উপনির্বাচ": 4262,
      "আত্মহত্যা": 4263,
      "আত্মমর্যাদা": 4264,
      "জিব্বা": 4265,
      "একঘেয়েমি": 4266,
      "কর্ণধার": 4267,
      "কোম্পানি": 4268,
      "বাদশাহ": 4269,
      "পুষ্করি": 4270,
      "উদ্বিগ্ন": 4271,
      "উদ্বো": 4272,
      "ধাঁধা": 4273,
      "গতানুগতিক": 4274,
      "অলৌকিক": 4275,
      "গাঁথুনি": 4276,
      "উড্ডয়ন": 4277,
      "কচুরিপ": 4278,
      "ভবিষ্যদ্বাণী": 4279,
      "আস্ফাল": 4280,
      "অদ্বৈত": 4281,
      "প্রতিরোধ": 4282,
      "অর্ধচন্দ্রা": 4283,
      "আত্তীকরণ": 4284,
      "ইবাদত": 4285,
      "ককটেল": 4286,
      "খচ্চর": 4287,
      "ছত্রাক": 4288,
      "দৈবজ্ঞ": 4289,
      "ধ্রু": 4290,
      "নলকূপ": 4291,
      "কাহিনী": 4292,
      "পাউডার": 4293,
      "কার্যালয়": 4294,
      "গুনাহ": 4295,
      "চিড়িয়াখানা": 4296,
      "চাঞ্চল্য": 4297,
      "আত্মতুষ্টি": 4298,
      "একচেটিয়া": 4299,
      "পরমানন্দ": 4300,
      "অক্ষাংশ": 4301,
      "উত্পাদন": 4302,
      "অর্বাচীন": 4303,
      "অগ্রগামি": 4304,
      "অন্যমনস্ক": 4305,
      "স্বাস্থ্য": 4306,
      "কারণগুুলো": 4307,
      "নিরাপত্তার": 4308,
      "পন্থী": 4309,
      "এলোমেলো": 4310,
      "এযাবৎ": 4311,
      "গড়পড়": 4312,
      "গলুই": 4313,
      "চত্বর": 4314,
      "চানাচুর": 4315,
      "ধৈর": 4316,
      "নগেন্দ্র": 4317,
      "রম্বস": 4318,
      "কাকতালীয়": 4319,
      "বিড়ম্ব": 4320,
      "দ্বিতীয়": 4321,
      "অভিষিক্ত": 4322,
      "সহজলভ": 4323,
      "গণঅভ্যুত্থ": 4324,
      "ঁরা": 4325,
      "ঁধি": 4326,
      "অক": 4327,
      "অজ": 4328,
      "অমন": 4329,
      "অশো": 4330,
      "অয়ন": 4331,
      "অজ্ঞান": 4332,
      "অঞ্চ": 4333,
      "অজ্ঞা": 4334,
      "অস্তা": 4335,
      "অতল": 4336,
      "অকুল": 4337,
      "অশিক্ষ": 4338,
      "অমনো": 4339,
      "অরক্ষ": 4340,
      "অশ্ব": 4341,
      "অমনোযোগ": 4342,
      "অকল্যাণ": 4343,
      "অকৃপণ": 4344,
      "আঠ": 4345,
      "আতা": 4346,
      "আড়": 4347,
      "আচার": 4348,
      "আকৃ": 4349,
      "আশু": 4350,
      "আমার": 4351,
      "আমের": 4352,
      "আদান": 4353,
      "আগে": 4354,
      "আপাদ": 4355,
      "আকৃতি": 4356,
      "আহত": 4357,
      "আচ্ছন্ন": 4358,
      "ইজরা": 4359,
      "উঠে": 4360,
      "উকিল": 4361,
      "ঋদ্ধি": 4362,
      "এস": 4363,
      "একে": 4364,
      "এপার": 4365,
      "ওর": 4366,
      "ওয়": 4367,
      "ওজন": 4368,
      "ওধার": 4369,
      "ওপার": 4370,
      "ওমরা": 4371,
      "ঔরস": 4372,
      "কনে": 4373,
      "কমে": 4374,
      "কতো": 4375,
      "কণা": 4376,
      "কন্য": 4377,
      "কড়াই": 4378,
      "কঠে": 4379,
      "কল্পে": 4380,
      "খড়": 4381,
      "খানের": 4382,
      "গঞ্": 4383,
      "গঙ্গা": 4384,
      "গল্পে": 4385,
      "ঘড়িয়া": 4386,
      "চূ": 4387,
      "চ্য": 4388,
      "চমু": 4389,
      "চপে": 4390,
      "চণ্ড": 4391,
      "চট্": 4392,
      "চলিত": 4393,
      "ছলা": 4394,
      "ছড়া": 4395,
      "ছন্দের": 4396,
      "জিক": 4397,
      "জরে": 4398,
      "জরের": 4399,
      "জবাব": 4400,
      "জলাশ": 4401,
      "জঙ্গল": 4402,
      "ঝক": 4403,
      "ঝোল": 4404,
      "টব": 4405,
      "টরে": 4406,
      "টানি": 4407,
      "ডানা": 4408,
      "ণও": 4409,
      "ণুর": 4410,
      "ণিত": 4411,
      "তট": 4412,
      "তথা": 4413,
      "থের": 4414,
      "দফ": 4415,
      "দনের": 4416,
      "দরে": 4417,
      "দমনের": 4418,
      "ধক্য": 4419,
      "ধরিয়া": 4420,
      "নন": 4421,
      "নৈ": 4422,
      "নরা": 4423,
      "নলি": 4424,
      "নকু": 4425,
      "নশি": 4426,
      "নকুল": 4427,
      "নজর": 4428,
      "পনা": 4429,
      "পান্": 4430,
      "পানের": 4431,
      "পতন": 4432,
      "প্যাকে": 4433,
      "ফর": 4434,
      "ফলটা": 4435,
      "বত": 4436,
      "বৎ": 4437,
      "বনে": 4438,
      "বংশ": 4439,
      "বল্": 4440,
      "বসু": 4441,
      "বানা": 4442,
      "বান্": 4443,
      "বানের": 4444,
      "বশত": 4445,
      "বংশের": 4446,
      "ভয়া": 4447,
      "মদ": 4448,
      "মলা": 4449,
      "মলে": 4450,
      "মনি": 4451,
      "মদের": 4452,
      "মীর": 4453,
      "মঞ্": 4454,
      "মলই": 4455,
      "মতের": 4456,
      "মঙ্গল": 4457,
      "যথ": 4458,
      "যম": 4459,
      "যূ": 4460,
      "যবন": 4461,
      "রত": 4462,
      "রীর": 4463,
      "রক্ষা": 4464,
      "রফত": 4465,
      "লনা": 4466,
      "লদের": 4467,
      "লঙ্": 4468,
      "লীর": 4469,
      "ললিত": 4470,
      "লৌকি": 4471,
      "শহ": 4472,
      "শটি": 4473,
      "শনা": 4474,
      "শত্র": 4475,
      "শুর": 4476,
      "শশী": 4477,
      "শার্": 4478,
      "সক": 4479,
      "সদ্": 4480,
      "সহি": 4481,
      "সস্তা": 4482,
      "সফল": 4483,
      "সদস্য": 4484,
      "হূ": 4485,
      "হীর": 4486,
      "হীরা": 4487,
      "িল": 4488,
      "িকা": 4489,
      "িটা": 4490,
      "ুকে": 4491,
      "ুতি": 4492,
      "ূপা": 4493,
      "ৃত": 4494,
      "েড": 4495,
      "োতে": 4496,
      "োহী": 4497,
      "ৎসা": 4498,
      "ড়ী": 4499,
      "য়ণ": 4500,
      "য়টা": 4501,
      "য়নে": 4502,
      "্রী": 4503,
      "কেন": 4504,
      "কো": 4505,
      "্যান্": 4506,
      "ানটি": 4507,
      "ানীর": 4508,
      "ানন্দ": 4509,
      "ানব্": 4510,
      "কাছ": 4511,
      "কাবে": 4512,
      "কালি": 4513,
      "কাদের": 4514,
      "কাছে": 4515,
      "কাহার": 4516,
      "কাসু": 4517,
      "কাচে": 4518,
      "কাজী": 4519,
      "কাশী": 4520,
      "কাজে": 4521,
      "কাজল": 4522,
      "কাবাব": 4523,
      "কাজুড়ে": 4524,
      "টিপু": 4525,
      "বাড়": 4526,
      "বাবার": 4527,
      "বাতায়": 4528,
      "বাজে": 4529,
      "বাণি": 4530,
      "বামাত্র": 4531,
      "বাড়ানো": 4532,
      "বাঙা": 4533,
      "বাঘি": 4534,
      "বাদিক": 4535,
      "বাণীর": 4536,
      "তালি": 4537,
      "তাহা": 4538,
      "তাবাদ": 4539,
      "তাটুকু": 4540,
      "তাজনিত": 4541,
      "তালাশ": 4542,
      "তাবিজ": 4543,
      "বিতে": 4544,
      "বিপু": 4545,
      "বিধা": 4546,
      "বিশ্র": 4547,
      "বিদ্র": 4548,
      "বিমুখ": 4549,
      "বিশাল": 4550,
      "বিভ্রান্ত": 4551,
      "রাব": 4552,
      "রাকে": 4553,
      "লাও": 4554,
      "লাল": 4555,
      "লামে": 4556,
      "লাঞ্": 4557,
      "লাড্ড": 4558,
      "অনপরাধ": 4559,
      "লেখে": 4560,
      "ক্ষী": 4561,
      "ক্ষো": 4562,
      "ক্ষণে": 4563,
      "নায়ে": 4564,
      "নাগুলো": 4565,
      "নাগিনী": 4566,
      "ছিয়া": 4567,
      "তিনি": 4568,
      "তিতেই": 4569,
      "তিকই": 4570,
      "নিশ্বাস": 4571,
      "নিষে": 4572,
      "নিন্দা": 4573,
      "নিন্দু": 4574,
      "নিখিল": 4575,
      "বেঁ": 4576,
      "বেল": 4577,
      "বেতার": 4578,
      "বেশে": 4579,
      "বেচক": 4580,
      "লিখা": 4581,
      "পালা": 4582,
      "পাহা": 4583,
      "ন্ট": 4584,
      "ন্দি": 4585,
      "প্রস্ত": 4586,
      "প্রবল": 4587,
      "প্রবাহি": 4588,
      "প্রক্রিয়া": 4589,
      "প্রবণ": 4590,
      "কারও": 4591,
      "কার্": 4592,
      "কারণে": 4593,
      "মায়া": 4594,
      "মাদের": 4595,
      "মাধ্য": 4596,
      "মালিশ": 4597,
      "মাংস": 4598,
      "ভাগা": 4599,
      "ভাগি": 4600,
      "স্কো": 4601,
      "স্টে": 4602,
      "স্নান": 4603,
      "স্ট্রি": 4604,
      "লোড়": 4605,
      "লোহা": 4606,
      "াইয়া": 4607,
      "রিক্ত": 4608,
      "গুহা": 4609,
      "গুজরা": 4610,
      "ত্রী": 4611,
      "ত্রে": 4612,
      "সাহা": 4613,
      "্যাল": 4614,
      "্যাহ্": 4615,
      "ড়ার": 4616,
      "ড়তে": 4617,
      "দেশি": 4618,
      "দেখে": 4619,
      "দেবী": 4620,
      "দাগ": 4621,
      "দ্ব": 4622,
      "দ্বন্": 4623,
      "ভিসা": 4624,
      "ভিক্ষা": 4625,
      "অনুজ": 4626,
      "অনুভ": 4627,
      "অনুলিখ": 4628,
      "অনুনয়": 4629,
      "অনুৎসাহ": 4630,
      "অনুতাপ": 4631,
      "চিনি": 4632,
      "চিঠি": 4633,
      "য়েও": 4634,
      "মিতে": 4635,
      "মিস্": 4636,
      "মিছিল": 4637,
      "মিশে": 4638,
      "চাক": 4639,
      "চালক": 4640,
      "চাষি": 4641,
      "গাধার": 4642,
      "জাকে": 4643,
      "জাতে": 4644,
      "জাহি": 4645,
      "জাতের": 4646,
      "হাসের": 4647,
      "হাপরে": 4648,
      "নেতে": 4649,
      "নেতার": 4650,
      "নেতাকে": 4651,
      "নেশিয়া": 4652,
      "দিনে": 4653,
      "দিব্য": 4654,
      "দিবস": 4655,
      "করার": 4656,
      "করুণ": 4657,
      "স্তূপ": 4658,
      "অপর্": 4659,
      "অপটু": 4660,
      "অপরূপ": 4661,
      "অপকীর্তি": 4662,
      "উপে": 4663,
      "উপকারী": 4664,
      "উপকথা": 4665,
      "উপার্": 4666,
      "উপকূ": 4667,
      "উপদল": 4668,
      "খাত": 4669,
      "খালি": 4670,
      "খাটু": 4671,
      "শিষ": 4672,
      "শিরা": 4673,
      "শিশি": 4674,
      "তার্থ": 4675,
      "অভিন": 4676,
      "অভিজ্ঞান": 4677,
      "অভিকর্ষ": 4678,
      "অভিযো": 4679,
      "শাকে": 4680,
      "শাটি": 4681,
      "শাতে": 4682,
      "শাশু": 4683,
      "শালার": 4684,
      "শালী": 4685,
      "ত্তা": 4686,
      "কিনার": 4687,
      "কিতাব": 4688,
      "কিন্তু": 4689,
      "অবশ": 4690,
      "অবরে": 4691,
      "অবগত": 4692,
      "অবস্থান": 4693,
      "অবস্থার": 4694,
      "গ্রহা": 4695,
      "মানব": 4696,
      "মানে": 4697,
      "মানফ্র": 4698,
      "ছাউনি": 4699,
      "মেথ": 4700,
      "মেদ": 4701,
      "মেশ": 4702,
      "মেয়": 4703,
      "মেলে": 4704,
      "মেয়ের": 4705,
      "মেসো": 4706,
      "বরং": 4707,
      "পিতা": 4708,
      "গুলোয়": 4709,
      "নেরই": 4710,
      "আত্মশু": 4711,
      "আত্মদান": 4712,
      "আত্মঘাত": 4713,
      "আত্মরক্ষ": 4714,
      "আত্মঘাতী": 4715,
      "অধর্ম": 4716,
      "অধাতু": 4717,
      "জিজ্ঞ": 4718,
      "জিজ্ঞা": 4719,
      "কাল্": 4720,
      "কালটা": 4721,
      "একম": 4722,
      "একবার": 4723,
      "একজন": 4724,
      "একান্ত": 4725,
      "একত্ব": 4726,
      "একচো": 4727,
      "হিসে": 4728,
      "হিব্র": 4729,
      "হিংস": 4730,
      "হিমাল": 4731,
      "কর্মা": 4732,
      "মুষ্টি": 4733,
      "মুছাই": 4734,
      "মুসল": 4735,
      "মুচমু": 4736,
      "বারো": 4737,
      "রেখে": 4738,
      "সেজে": 4739,
      "সেখানে": 4740,
      "তুফ": 4741,
      "তুষার": 4742,
      "ল্লোড়": 4743,
      "সিঁ": 4744,
      "সিয়া": 4745,
      "সিডি": 4746,
      "সিঞ্চ": 4747,
      "বুধ": 4748,
      "যাওয়া": 4749,
      "যাচাই": 4750,
      "যাতনা": 4751,
      "যাদব": 4752,
      "জনপদ": 4753,
      "জনপ্রিয়": 4754,
      "লেরা": 4755,
      "চারীদের": 4756,
      "পেও": 4757,
      "সহকর্মী": 4758,
      "দুশ": 4759,
      "দুনি": 4760,
      "দুষ্": 4761,
      "দুপুর": 4762,
      "পরিবেশ": 4763,
      "পরিপূর্ণ": 4764,
      "পরিস্থি": 4765,
      "পরিত্যাগ": 4766,
      "যোগদান": 4767,
      "স্থূ": 4768,
      "ব্যয়ের": 4769,
      "লুপ": 4770,
      "লুটো": 4771,
      "লুকানো": 4772,
      "সংখ": 4773,
      "সংগ্রহ": 4774,
      "সংকল্প": 4775,
      "সংগঠন": 4776,
      "ওয়াই": 4777,
      "কোপ": 4778,
      "কোষ": 4779,
      "কোকি": 4780,
      "কোকিল": 4781,
      "ক্রি": 4782,
      "ক্রে": 4783,
      "ডায়ে": 4784,
      "হারি": 4785,
      "ত্যের": 4786,
      "পুষ্ট": 4787,
      "কর্মহীন": 4788,
      "কর্মীরা": 4789,
      "কর্মসূ": 4790,
      "কর্মকর্তা": 4791,
      "কৃতির": 4792,
      "প্রাণী": 4793,
      "প্রাতঃ": 4794,
      "সুলভ": 4795,
      "ষ্টার": 4796,
      "দেশেই": 4797,
      "ঘাটা": 4798,
      "ঘাটে": 4799,
      "শুনা": 4800,
      "শুষ্ক": 4801,
      "গোঁ": 4802,
      "গোপ": 4803,
      "গোলক": 4804,
      "গোশত": 4805,
      "গোপাল": 4806,
      "উদ্ঘাট": 4807,
      "উদ্ভাস": 4808,
      "উত্তো": 4809,
      "বোঝ": 4810,
      "বোন": 4811,
      "বোনের": 4812,
      "গিনীর": 4813,
      "মারে": 4814,
      "টারি": 4815,
      "টুকুর": 4816,
      "দ্যনাথ": 4817,
      "শোকের": 4818,
      "শেখ": 4819,
      "শেয়া": 4820,
      "শেয়াল": 4821,
      "সারের": 4822,
      "সার্থ": 4823,
      "তায়ই": 4824,
      "পুরের": 4825,
      "ীদেরও": 4826,
      "মেরা": 4827,
      "মেরাম": 4828,
      "জীবের": 4829,
      "ফুপা": 4830,
      "ফুলের": 4831,
      "ফুপু": 4832,
      "খোপ": 4833,
      "ধিক্": 4834,
      "দীর্ণ": 4835,
      "মোদ": 4836,
      "অনিদ্র": 4837,
      "অনিচ্ছ": 4838,
      "গণের": 4839,
      "গণকে": 4840,
      "গণতন্ত্র": 4841,
      "ধুলা": 4842,
      "ভুলে": 4843,
      "ভুক্ত": 4844,
      "সমস্য": 4845,
      "ঘুসি": 4846,
      "ঘুমাই": 4847,
      "বন্যা": 4848,
      "বৃত্তি": 4849,
      "বৃদ্ধা": 4850,
      "জোড়": 4851,
      "জোড়া": 4852,
      "যন্ত্রকৌশ": 4853,
      "যন্ত্রপাতি": 4854,
      "অধিপতি": 4855,
      "অধিক্ষেত্র": 4856,
      "অধিবর্ষ": 4857,
      "উৎকর্ষ": 4858,
      "জুন": 4859,
      "জুলুম": 4860,
      "ড়াল": 4861,
      "ন্দ্রনাথ": 4862,
      "কলম": 4863,
      "ককেও": 4864,
      "স্বী": 4865,
      "স্বল্প": 4866,
      "ফিলিপি": 4867,
      "ভূতল": 4868,
      "ভূমির": 4869,
      "সম্পর্": 4870,
      "ময়নাত": 4871,
      "ীরাও": 4872,
      "অনাথা": 4873,
      "অনাচার": 4874,
      "আপৎ": 4875,
      "আপ্যায়": 4876,
      "আপ্যায়ন": 4877,
      "ডিমা": 4878,
      "ডিজে": 4879,
      "ডিঙা": 4880,
      "প্রতিবেশি": 4881,
      "প্রতিমুখে": 4882,
      "ানো": 4883,
      "দোক": 4884,
      "দোকান": 4885,
      "দাঁত": 4886,
      "দাঁড়াই": 4887,
      "তীত": 4888,
      "ভেঙ": 4889,
      "খুন": 4890,
      "রোহি": 4891,
      "হেঁ": 4892,
      "হেল": 4893,
      "অবিচল": 4894,
      "অবিকল": 4895,
      "অবিবেচক": 4896,
      "রীণ": 4897,
      "হুল্লোড়": 4898,
      "ছুকরি": 4899,
      "ক্যান": 4900,
      "নির্দেশ": 4901,
      "পাইল": 4902,
      "ণিকা": 4903,
      "য়েছিলো": 4904,
      "য়েছিলাম": 4905,
      "য়েছিলেন": 4906,
      "বর্ষে": 4907,
      "অপ্রকৃতি": 4908,
      "পথিক": 4909,
      "কাইয়া": 4910,
      "পূর্বপুরুষ": 4911,
      "নরত": 4912,
      "হাঁক": 4913,
      "হাঁসা": 4914,
      "কমলা": 4915,
      "অমল": 4916,
      "অমঙ্গ": 4917,
      "ক্ষুধ": 4918,
      "ক্ষুদ্র": 4919,
      "ক্ষুব্ধ": 4920,
      "ছোটো": 4921,
      "পাত্রীদের": 4922,
      "দিনকার": 4923,
      "দিনরাত্র": 4924,
      "ধূসর": 4925,
      "পীড়া": 4926,
      "পোর্": 4927,
      "পোড়ানো": 4928,
      "তিকবি": 4929,
      "গ্রাফ": 4930,
      "উত্তরীয়": 4931,
      "গঠনের": 4932,
      "ফেলে": 4933,
      "শতপর্": 4934,
      "দেবতার": 4935,
      "অপরিচি": 4936,
      "অপরিপক্ব": 4937,
      "অপরিণত": 4938,
      "সর্বদা": 4939,
      "ইতিমধ্য": 4940,
      "ইতিপূর্বে": 4941,
      "বলিত": 4942,
      "ভর্ত": 4943,
      "যোগ্যতা": 4944,
      "শেষে": 4945,
      "শেষের": 4946,
      "অক্লান্ত": 4947,
      "শান্তির": 4948,
      "অংশীদারত্ব": 4949,
      "আলকাতরা": 4950,
      "গীতিকবি": 4951,
      "পর্বে": 4952,
      "স্বরূপ": 4953,
      "জীবনে": 4954,
      "জমিন": 4955,
      "ভারত": 4956,
      "ভারতীয়": 4957,
      "অঙ্কু": 4958,
      "ইউয়": 4959,
      "ইউয়ান": 4960,
      "দেখানো": 4961,
      "ঘনমূ": 4962,
      "ঘনত্ব": 4963,
      "ধ্বং": 4964,
      "কেন্দ্রিক": 4965,
      "আইনজীবী": 4966,
      "কলিকা": 4967,
      "ঢাকা": 4968,
      "লজ্জ": 4969,
      "নিরানব্": 4970,
      "মুক্তা": 4971,
      "আবাসস্থ": 4972,
      "এলাচ": 4973,
      "এলাকা": 4974,
      "কয়েদী": 4975,
      "কম্পিত": 4976,
      "দূরবর্তী": 4977,
      "পরীক্ষার": 4978,
      "দৃশ্যমান": 4979,
      "ফাঁস": 4980,
      "ফাঁসি": 4981,
      "অন্ধবিশ্বাস": 4982,
      "উদযাপন": 4983,
      "ঝুলাই": 4984,
      "বৈঠ": 4985,
      "বৈষ": 4986,
      "বৈশা": 4987,
      "বৈদ্যনাথ": 4988,
      "স্বাভাবি": 4989,
      "স্বাধীন": 4990,
      "কুমারী": 4991,
      "আত্মপ্রশংসা": 4992,
      "জন্ম": 4993,
      "মহাশয়": 4994,
      "হেরে": 4995,
      "খুঁটি": 4996,
      "বায়ুমণ্ড": 4997,
      "আর্কটি": 4998,
      "উন্নত": 4999,
      "লম্ব": 5000,
      "সীমা": 5001,
      "কারণগুলি": 5002,
      "চিত্তে": 5003,
      "গাছের": 5004,
      "হাতড়ে": 5005,
      "হাততুলে": 5006,
      "কমিটি": 5007,
      "তর্জন": 5008,
      "পড়ুয়া": 5009,
      "ফোঁ": 5010,
      "ফেরে": 5011,
      "ফেরেস্তা": 5012,
      "মৌলি": 5013,
      "সন্তানের": 5014,
      "তাঁতি": 5015,
      "খাঁজ": 5016,
      "অব্যব": 5017,
      "কন্যাদায়": 5018,
      "পতনের": 5019,
      "মধ্যম": 5020,
      "হৃদয়ের": 5021,
      "পাশবিক": 5022,
      "গাঁট": 5023,
      "দুর্ভি": 5024,
      "দুর্গা": 5025,
      "ঠাকুরবাড়ি": 5026,
      "অবাধ": 5027,
      "অত্যাবশ্য": 5028,
      "চর্চা": 5029,
      "ছলছ": 5030,
      "ছলছল": 5031,
      "বিশ্বাসঘাত": 5032,
      "প্রেমের": 5033,
      "সামগ্রী": 5034,
      "খোঁজ": 5035,
      "যুদ্ধবিদ্যা": 5036,
      "গ্রামবাস": 5037,
      "আংটি": 5038,
      "আতিথ্য": 5039,
      "ঔষধি": 5040,
      "গল্পও": 5041,
      "গল্পের": 5042,
      "চটপটে": 5043,
      "হরিণ": 5044,
      "গিরিপথ": 5045,
      "অনিয়মিত": 5046,
      "আশ্রয়স্থল": 5047,
      "উদ্ধৃতি": 5048,
      "ইসলামধর্": 5049,
      "ইসলামধর্ম": 5050,
      "তীরে": 5051,
      "তীরবর্তী": 5052,
      "পকেট": 5053,
      "বাবুদের": 5054,
      "কিছুক্ষণ": 5055,
      "ভবিষ্যৎ": 5056,
      "আস্থাহীন": 5057,
      "আস্থাভাজন": 5058,
      "ঘৃণা": 5059,
      "ঘড়িয়া": 5060,
      "ঘড়িয়াল": 5061,
      "হাইকোর্": 5062,
      "নিয়োগসমূ": 5063,
      "অরুচি": 5064,
      "আশ্বি": 5065,
      "আধুনিক": 5066,
      "উল্কা": 5067,
      "উল্লেখ": 5068,
      "বাজারের": 5069,
      "তাবশত": 5070,
      "মাঠান": 5071,
      "উপস্থাপন": 5072,
      "উদ্দীপনা": 5073,
      "আবহমান": 5074,
      "আবহসংগী": 5075,
      "স্বভাবের": 5076,
      "অখণ্ডিত": 5077,
      "আতঙ্": 5078,
      "আতঙ্ক": 5079,
      "আদিবাস": 5080,
      "আদিবাসী": 5081,
      "গম্য": 5082,
      "ঢেউ": 5083,
      "দয়াশীল": 5084,
      "বাদিনী": 5085,
      "বিহারের": 5086,
      "বিশেষজ্ঞ": 5087,
      "স্পতির": 5088,
      "গালমন্দ": 5089,
      "নেহরু": 5090,
      "অভিবাসন": 5091,
      "শ্রোতা": 5092,
      "যুবক": 5093,
      "আবাহন": 5094,
      "কলাকৌশল": 5095,
      "ছারখার": 5096,
      "দূত": 5097,
      "দূরে": 5098,
      "নন্দন": 5099,
      "সংশো": 5100,
      "ক্ষিপ্ত": 5101,
      "প্রদেশের": 5102,
      "গুুলি": 5103,
      "কুটকু": 5104,
      "পেঁয়াজ": 5105,
      "সংস্কার": 5106,
      "উদ্দেশ্য": 5107,
      "আবশ্যক": 5108,
      "পার্শ্ব": 5109,
      "আপিলকারী": 5110,
      "অদৃশ্যমান": 5111,
      "ঔপনিবে": 5112,
      "দংশক": 5113,
      "বন্দী": 5114,
      "অনভ্যা": 5115,
      "নিশ্চিন্ত": 5116,
      "অনুসারী": 5117,
      "অভিশপ্ত": 5118,
      "উত্তেজ": 5119,
      "উত্তেজি": 5120,
      "অভ্যন্তরীণ": 5121,
      "আদালত": 5122,
      "অভিভাবকত্ব": 5123,
      "অকর্মণ্য": 5124,
      "কণিকা": 5125,
      "ছক্কা": 5126,
      "প্যার": 5127,
      "রসিকতা": 5128,
      "ল্যাং": 5129,
      "নিষ্ঠা": 5130,
      "সাক্ষ্য": 5131,
      "অনুচ্চ": 5132,
      "অনুচ্চার": 5133,
      "আত্মরতি": 5134,
      "প্রাচীন": 5135,
      "যন্ত্রবিজ্ঞান": 5136,
      "ভ্রমণ": 5137,
      "আপেক্ষিক": 5138,
      "আপেক্ষিকতা": 5139,
      "বিপিনকিশো": 5140,
      "আন্দোলন": 5141,
      "অঘটন": 5142,
      "টলমল": 5143,
      "পলাশি": 5144,
      "বাচ্চা": 5145,
      "পাড়ার": 5146,
      "প্রথম": 5147,
      "সাংবাদিক": 5148,
      "গাড়িবারান্": 5149,
      "অপচেষ্টা": 5150,
      "উপন্যাস": 5151,
      "অবসান": 5152,
      "অবমাননা": 5153,
      "মেধাবী": 5154,
      "পর্যন্ত": 5155,
      "উত্থান": 5156,
      "আবর্জ": 5157,
      "সমালোচনা": 5158,
      "অগ্ন্যুত্": 5159,
      "বিষয়ক": 5160,
      "খুঁতখুঁ": 5161,
      "শয়তান": 5162,
      "ধারাবাহিক": 5163,
      "অনুপস্থিতি": 5164,
      "চড়ুইভা": 5165,
      "অপেশাদারি": 5166,
      "নিম্নদেশে": 5167,
      "আরাধ্য": 5168,
      "আড়াল": 5169,
      "আমানত": 5170,
      "ইচ্ছু": 5171,
      "ইশারা": 5172,
      "ঐশ্বর্য": 5173,
      "কন্ঠ": 5174,
      "টয়লে": 5175,
      "টয়লেট": 5176,
      "ঠান্ডা": 5177,
      "বিনিম": 5178,
      "বিনিময়": 5179,
      "চিরুনি": 5180,
      "গালাগালি": 5181,
      "করমর্দন": 5182,
      "খামচি": 5183,
      "শিবনাথ": 5184,
      "তারকাঁটা": 5185,
      "অভিবাদন": 5186,
      "অবয়ব": 5187,
      "আত্মবিসর্": 5188,
      "আত্মবিকাশ": 5189,
      "আত্মনির্ভরশীল": 5190,
      "সিগারেট": 5191,
      "খেলোয়াড়": 5192,
      "পরমাণু": 5193,
      "অর্ণব": 5194,
      "মহীষ": 5195,
      "অপরিহার্য": 5196,
      "অপরিবর্তন": 5197,
      "প্লাবিত": 5198,
      "আলোকসজ্জা": 5199,
      "আধ্যাত্মিক": 5200,
      "আধ্যাত্মিকতা": 5201,
      "উদ্যোগ": 5202,
      "আঙুল": 5203,
      "আফ্রিকান": 5204,
      "কিংবদন্তি": 5205,
      "আঙ্গুর": 5206,
      "অযত্ন": 5207,
      "ওস্তাদ": 5208,
      "ঔজ্জ্বল্য": 5209,
      "খলিফা": 5210,
      "মধ্যাহ্": 5211,
      "মহারাষ্ট্র": 5212,
      "যতিচিহ্": 5213,
      "বাংলা": 5214,
      "অনুশোচনা": 5215,
      "উপদেষ্টা": 5216,
      "জ্বালা": 5217,
      "অবচেতন": 5218,
      "একতরফা": 5219,
      "প্রাথমি": 5220,
      "ফাল্গু": 5221,
      "উন্মোচন": 5222,
      "নর্তক": 5223,
      "মন্দিরের": 5224,
      "ব্রাক্ষ্ম": 5225,
      "অনির্বাণ": 5226,
      "অধিবেশনকক্ষ": 5227,
      "অন্ত্যেষ্টিক্রিয়া": 5228,
      "অটুট": 5229,
      "আপামর": 5230,
      "ঊর্ধ্ব": 5231,
      "কষ্টিপাথর": 5232,
      "ঘণ্টা": 5233,
      "জৈবসার": 5234,
      "কাঙ্গাল": 5235,
      "তেলঙ্গানা": 5236,
      "বেয়াদ": 5237,
      "অনুল্লেখ": 5238,
      "চিকিৎস": 5239,
      "অপভ্রংশ": 5240,
      "একগুঁয়েমি": 5241,
      "বার্ধক্য": 5242,
      "মনুষ্য": 5243,
      "পুরস্কার": 5244,
      "অভূতপূর্ব": 5245,
      "পোলিয়ো": 5246,
      "গৃহিণী": 5247,
      "কয়েদখানা": 5248,
      "উদ্যাপ": 5249,
      "কৌতুক": 5250,
      "দক্ষিণ": 5251,
      "কীর্তন": 5252,
      "আধুনিকায়ন": 5253,
      "পশ্চিমবঙ্গ": 5254,
      "একনায়কতন্ত্র": 5255,
      "পুষ্করিণী": 5256,
      "কচুরিপানা": 5257,
      "ধ্রুব": 5258,
      "ধৈর্য": 5259,
      "অজ্ঞাত": 5260,
      "অমনোযোগি": 5261,
      "আদানপ্র": 5262,
      "আপাদমস্ত": 5263,
      "কঠোর": 5264,
      "চপেটা": 5265,
      "দফতর": 5266,
      "শনাল": 5267,
      "শত্রুর": 5268,
      "বাণিজ্য": 5269,
      "বাঙালি": 5270,
      "বিশ্রাম": 5271,
      "ছিয়াশি": 5272,
      "স্কোয়": 5273,
      "অবরো": 5274,
      "মানফ্রেড": 5275,
      "আত্মশুদ্ধি": 5276,
      "জিজ্ঞে": 5277,
      "ফিলিপিন্": 5278,
      "ময়নাতদন্ত": 5279,
      "অপ্রকৃতিস্থ": 5280,
      "নিরানব্বই": 5281,
      "স্বাভাবিক": 5282,
      "ঔপনিবেশিক": 5283,
      "ঁক": 5284,
      "ঁদের": 5285,
      "ংড়ি": 5286,
      "ঃফর": 5287,
      "অগ": 5288,
      "অথ": 5289,
      "অবে": 5290,
      "অশ্": 5291,
      "অরণ": 5292,
      "অশু": 5293,
      "অদর": 5294,
      "অকল্প": 5295,
      "অতিক": 5296,
      "অকারণ": 5297,
      "অসুখ": 5298,
      "অমিত": 5299,
      "অকূল": 5300,
      "অসুবি": 5301,
      "অমীমাংসা": 5302,
      "অ্যান্": 5303,
      "অকারণে": 5304,
      "আগ": 5305,
      "আজ": 5306,
      "আষ": 5307,
      "আছে": 5308,
      "আবর": 5309,
      "আজি": 5310,
      "আফি": 5311,
      "আগ্রা": 5312,
      "আশার": 5313,
      "আদল": 5314,
      "আগাম": 5315,
      "আকাঙ্": 5316,
      "আসেন": 5317,
      "ইঁ": 5318,
      "ইর": 5319,
      "ইয়": 5320,
      "ইয়া": 5321,
      "ইমা": 5322,
      "ইয়ে": 5323,
      "ইহা": 5324,
      "ইন্দ": 5325,
      "ইষ্ট": 5326,
      "ইতো": 5327,
      "ঈর্": 5328,
      "উভ": 5329,
      "উর": 5330,
      "উতো": 5331,
      "উডি": 5332,
      "উড়ানো": 5333,
      "উভয়": 5334,
      "ঊন": 5335,
      "এব": 5336,
      "এটি": 5337,
      "এলে": 5338,
      "এপ্র": 5339,
      "এজি": 5340,
      "এগো": 5341,
      "এখান": 5342,
      "এগার": 5343,
      "এনটি": 5344,
      "এদিক": 5345,
      "ওতে": 5346,
      "ওরা": 5347,
      "ওঠে": 5348,
      "ওদিক": 5349,
      "ওখানে": 5350,
      "ওদিকটা": 5351,
      "ওপারে": 5352,
      "ওলাউ": 5353,
      "কষ": 5354,
      "কমা": 5355,
      "কশা": 5356,
      "ককেই": 5357,
      "কানা": 5358,
      "কগণ": 5359,
      "কান্": 5360,
      "কঠো": 5361,
      "কপাল": 5362,
      "কমানো": 5363,
      "কপ্রাচীর": 5364,
      "কদ্দ": 5365,
      "কবলিত": 5366,
      "খের": 5367,
      "খলে": 5368,
      "খস্": 5369,
      "খড়ি": 5370,
      "খড়ে": 5371,
      "খ্রী": 5372,
      "গৌ": 5373,
      "গন্": 5374,
      "গরি": 5375,
      "গ্যা": 5376,
      "গহীন": 5377,
      "গজল": 5378,
      "গলায়": 5379,
      "গতিতে": 5380,
      "গতিই": 5381,
      "গলাটা": 5382,
      "গনেশিয়া": 5383,
      "ঘষ": 5384,
      "ঘ্য": 5385,
      "ঘর্": 5386,
      "ঘটাই": 5387,
      "ঘির": 5388,
      "ঘটিতে": 5389,
      "ঘেরা": 5390,
      "চৌ": 5391,
      "চান": 5392,
      "চকা": 5393,
      "চড়া": 5394,
      "চকি": 5395,
      "চনের": 5396,
      "চন্দ": 5397,
      "চঞ্": 5398,
      "চনই": 5399,
      "চঞ্চ": 5400,
      "চড়ে": 5401,
      "চয়ই": 5402,
      "চৌকি": 5403,
      "ছক": 5404,
      "ছন": 5405,
      "ছস": 5406,
      "ছয়ে": 5407,
      "ছল্": 5408,
      "ছট্": 5409,
      "জজ": 5410,
      "জপ": 5411,
      "জম": 5412,
      "জৈ": 5413,
      "জতে": 5414,
      "জর্": 5415,
      "জলা": 5416,
      "জড়": 5417,
      "জন্ত": 5418,
      "জমে": 5419,
      "জোগ": 5420,
      "জঙ্গ": 5421,
      "জরু": 5422,
      "জলের": 5423,
      "জয়ের": 5424,
      "জবান": 5425,
      "জঃফর": 5426,
      "ঝড়": 5427,
      "ঝড়ের": 5428,
      "টফ": 5429,
      "টতে": 5430,
      "টক্": 5431,
      "টবে": 5432,
      "টনের": 5433,
      "টকের": 5434,
      "টানা": 5435,
      "টরের": 5436,
      "টচূ": 5437,
      "ঠং": 5438,
      "ঠু": 5439,
      "ঠকু": 5440,
      "ড্র": 5441,
      "ঢোল": 5442,
      "ণদুর্": 5443,
      "তখ": 5444,
      "তত": 5445,
      "তূ": 5446,
      "তদের": 5447,
      "তম্": 5448,
      "তবু": 5449,
      "তলের": 5450,
      "তনার": 5451,
      "তমাল": 5452,
      "তখন": 5453,
      "তস্বভাব": 5454,
      "তদন্ত": 5455,
      "থন": 5456,
      "থার": 5457,
      "থবৃ": 5458,
      "থ্যের": 5459,
      "দম": 5460,
      "দৈ": 5461,
      "দরি": 5462,
      "দশা": 5463,
      "দম্": 5464,
      "দত্ত": 5465,
      "দমে": 5466,
      "দীন": 5467,
      "দানা": 5468,
      "দলকে": 5469,
      "দটাকে": 5470,
      "দলিত": 5471,
      "দম্প": 5472,
      "ধনের": 5473,
      "ধানো": 5474,
      "ধরে": 5475,
      "ধূপ": 5476,
      "ধন্য": 5477,
      "নয়ে": 5478,
      "নড়া": 5479,
      "নতু": 5480,
      "নান্": 5481,
      "নানের": 5482,
      "নড়ে": 5483,
      "নথি": 5484,
      "নদীর": 5485,
      "পত্": 5486,
      "পচা": 5487,
      "পানে": 5488,
      "পরাই": 5489,
      "পড়ার": 5490,
      "পদ্ম": 5491,
      "ফৌ": 5492,
      "ফ্": 5493,
      "ফলা": 5494,
      "ফস্": 5495,
      "ফদা": 5496,
      "ফকি": 5497,
      "ফিক": 5498,
      "ফলটি": 5499,
      "ফণি": 5500,
      "বধ": 5501,
      "বশ": 5502,
      "বকা": 5503,
      "বটা": 5504,
      "বয়া": 5505,
      "বচ্": 5506,
      "বজ্": 5507,
      "বক্ত": 5508,
      "বমান": 5509,
      "বানো": 5510,
      "বণ্": 5511,
      "বকের": 5512,
      "বলের": 5513,
      "বঞ্": 5514,
      "বানি": 5515,
      "বটির": 5516,
      "বনকে": 5517,
      "বস্ত্র": 5518,
      "বধূ": 5519,
      "বদল": 5520,
      "বচন": 5521,
      "বন্দু": 5522,
      "ভগ": 5523,
      "ভন": 5524,
      "ভক্ষণ": 5525,
      "ভগিনী": 5526,
      "ভলতে": 5527,
      "মৈ": 5528,
      "মৎ": 5529,
      "মতি": 5530,
      "মদে": 5531,
      "মজা": 5532,
      "মঙ্গ": 5533,
      "মলের": 5534,
      "মদ্য": 5535,
      "মলকে": 5536,
      "মীকে": 5537,
      "মন্দ্র": 5538,
      "মসী": 5539,
      "মর্ম": 5540,
      "মস্তি": 5541,
      "মঞ্জ": 5542,
      "মশায়": 5543,
      "মকদ্দ": 5544,
      "মজঃফর": 5545,
      "যত": 5546,
      "যশ": 5547,
      "যজ্ঞ": 5548,
      "রথ": 5549,
      "রব": 5550,
      "রসে": 5551,
      "রশ্": 5552,
      "রানি": 5553,
      "রটাকে": 5554,
      "রম্ব": 5555,
      "লস": 5556,
      "লয়ে": 5557,
      "লুর": 5558,
      "লকেই": 5559,
      "লয়ের": 5560,
      "লতাই": 5561,
      "লর্ড": 5562,
      "ললনা": 5563,
      "শশ": 5564,
      "শৈ": 5565,
      "শকে": 5566,
      "শয়ে": 5567,
      "শস্ত": 5568,
      "শশি": 5569,
      "শনের": 5570,
      "শপথ": 5571,
      "শমাত্র": 5572,
      "শৃঙ্": 5573,
      "শতাংশ": 5574,
      "ষো": 5575,
      "ষিত": 5576,
      "সদ": 5577,
      "সমি": 5578,
      "সরে": 5579,
      "সরু": 5580,
      "সচে": 5581,
      "সটার": 5582,
      "সদৃ": 5583,
      "সবের": 5584,
      "সতী": 5585,
      "সফো": 5586,
      "সবাই": 5587,
      "সত্ত্": 5588,
      "হক": 5589,
      "হন": 5590,
      "হল": 5591,
      "হ্য": 5592,
      "হটা": 5593,
      "হতে": 5594,
      "হতা": 5595,
      "হলে": 5596,
      "হকি": 5597,
      "হলু": 5598,
      "হানি": 5599,
      "হঠা": 5600,
      "হনু": 5601,
      "হরী": 5602,
      "হর্ম": 5603,
      "হটকে": 5604,
      "াড়": 5605,
      "াতুর": 5606,
      "াজ্য": 5607,
      "িতা": 5608,
      "িকার": 5609,
      "িসিঞ্চ": 5610,
      "ীতি": 5611,
      "ীয়া": 5612,
      "ীনের": 5613,
      "ীমণ্ড": 5614,
      "ুম": 5615,
      "ুটি": 5616,
      "ুর্": 5617,
      "ুনি": 5618,
      "ুড়ি": 5619,
      "ুয়ারি": 5620,
      "ৃহ": 5621,
      "োত": 5622,
      "োনো": 5623,
      "োপাধ্যায়": 5624,
      "্মী": 5625,
      "ৎনর": 5626,
      "ৎসাহি": 5627,
      "ড়েই": 5628,
      "য়নি": 5629,
      "য়নের": 5630,
      "য়িক": 5631,
      "য়নকে": 5632,
      "য়নটা": 5633,
      "১৩": 5634,
      "৪৪": 5635,
      "ারো": 5636,
      "্রাজ্য": 5637,
      "কেট": 5638,
      "কেছে": 5639,
      "কেলের": 5640,
      "কেটে": 5641,
      "্যশি": 5642,
      "্যোগ": 5643,
      "ানী": 5644,
      "ানাই": 5645,
      "কাগ": 5646,
      "কাকা": 5647,
      "কাদে": 5648,
      "কাদা": 5649,
      "কাটু": 5650,
      "কাতেই": 5651,
      "কাশ্য": 5652,
      "কাউন্": 5653,
      "কাজের": 5654,
      "কাগজ": 5655,
      "কাপড়": 5656,
      "টাকি": 5657,
      "টাওয়া": 5658,
      "টাকেই": 5659,
      "টাতেই": 5660,
      "টিন": 5661,
      "টিভ": 5662,
      "টিকি": 5663,
      "তেল": 5664,
      "তেলে": 5665,
      "তেলের": 5666,
      "র্খা": 5667,
      "বাটা": 5668,
      "বাবে": 5669,
      "বামা": 5670,
      "বাষ্": 5671,
      "বাড়া": 5672,
      "বাঁচ": 5673,
      "বাল্য": 5674,
      "বাতুল": 5675,
      "বালিশ": 5676,
      "বাচন": 5677,
      "বালিকা": 5678,
      "বাজোরা": 5679,
      "বাড়ী": 5680,
      "তাক": 5681,
      "তাবি": 5682,
      "তায়া": 5683,
      "তাকাল": 5684,
      "তাহার": 5685,
      "তাগি": 5686,
      "তাড়ি": 5687,
      "তাড়া": 5688,
      "তাপের": 5689,
      "তামূলক": 5690,
      "তালিকা": 5691,
      "তাদুষ্ট": 5692,
      "বিশ": 5693,
      "বিলি": 5694,
      "বিস্ত": 5695,
      "বিত্ত": 5696,
      "বিলের": 5697,
      "বিষা": 5698,
      "বিধান": 5699,
      "বিরো": 5700,
      "বিবর্ত": 5701,
      "বিজ্ঞান": 5702,
      "বিকাশ": 5703,
      "বিপ্": 5704,
      "বিকেন্দ্র": 5705,
      "বিনয়": 5706,
      "বিচ্ছেদ": 5707,
      "বিশুদ্ধ": 5708,
      "বিখ্যাত": 5709,
      "বিপদে": 5710,
      "বিভেদ": 5711,
      "বিস্তার": 5712,
      "বিচ্ছিন্ন": 5713,
      "বিভাগে": 5714,
      "বিশ্বাসে": 5715,
      "বিপাক": 5716,
      "বিঁধি": 5717,
      "বিমলা": 5718,
      "বিলম্ব": 5719,
      "রাঙ": 5720,
      "রাক্ষ": 5721,
      "রাখে": 5722,
      "রাগাই": 5723,
      "রাবণ": 5724,
      "রাসায়": 5725,
      "লাপ": 5726,
      "লাদের": 5727,
      "লামি": 5728,
      "লাখে": 5729,
      "লালকে": 5730,
      "লাবৃষ্টি": 5731,
      "লাষের": 5732,
      "লাহো": 5733,
      "অনবর": 5734,
      "অনপরা": 5735,
      "ক্কুট": 5736,
      "লেজ": 5737,
      "লেকে": 5738,
      "লেক্": 5739,
      "লেস্": 5740,
      "লেখি": 5741,
      "লেচ্ছ": 5742,
      "লেগে": 5743,
      "ক্ষীর": 5744,
      "ক্ষতের": 5745,
      "ক্ষণের": 5746,
      "ক্ষণই": 5747,
      "নাদ": 5748,
      "নাস": 5749,
      "নাসা": 5750,
      "নামে": 5751,
      "নামু": 5752,
      "নামের": 5753,
      "নাটকে": 5754,
      "নাগাল": 5755,
      "নাটক": 5756,
      "ছিয়ে": 5757,
      "ছিন্ন": 5758,
      "তিল": 5759,
      "তিলক": 5760,
      "তিব্": 5761,
      "তিটুকু": 5762,
      "নিন": 5763,
      "নিয়ে": 5764,
      "নিচু": 5765,
      "নিগ্রহ": 5766,
      "নিপী": 5767,
      "নিষি": 5768,
      "নিখুঁ": 5769,
      "নিকট": 5770,
      "নিক্ষেপ": 5771,
      "নিস্প": 5772,
      "নিবেশি": 5773,
      "নিয়ো": 5774,
      "নিশ্বাসে": 5775,
      "নিউই": 5776,
      "য়াটা": 5777,
      "য়াকু": 5778,
      "য়াহ্": 5779,
      "বেও": 5780,
      "বেত": 5781,
      "বেটা": 5782,
      "বেলে": 5783,
      "বেছে": 5784,
      "বেল্": 5785,
      "বেনার": 5786,
      "বেগে": 5787,
      "বেয়নে": 5788,
      "লিঙ": 5789,
      "লিয়ে": 5790,
      "লিবার": 5791,
      "লিষ্ট": 5792,
      "লিয়ার": 5793,
      "পাউ": 5794,
      "পাট": 5795,
      "পায়ে": 5796,
      "পাতার": 5797,
      "পাকি": 5798,
      "পাঞ্": 5799,
      "পাতেই": 5800,
      "পাশে": 5801,
      "পাতায়": 5802,
      "পাঠা": 5803,
      "পাষা": 5804,
      "পাঠি": 5805,
      "পাতই": 5806,
      "পাতী": 5807,
      "পাপী": 5808,
      "পাড়ে": 5809,
      "পাবলি": 5810,
      "পাকানো": 5811,
      "পাল্লা": 5812,
      "পাশ্চা": 5813,
      "ন্দির": 5814,
      "ন্নাথ": 5815,
      "প্রভা": 5816,
      "প্রদী": 5817,
      "প্রবাহ": 5818,
      "প্রকৃত": 5819,
      "প্ররো": 5820,
      "প্রবর্ত": 5821,
      "প্রকল্প": 5822,
      "প্রস্তা": 5823,
      "প্রশিক্ষ": 5824,
      "প্রসাদ": 5825,
      "প্রযুক্তি": 5826,
      "প্রদর্শন": 5827,
      "প্রকাশে": 5828,
      "প্রণয়": 5829,
      "প্রকোপ": 5830,
      "প্রশস্ত": 5831,
      "প্রকাশ্য": 5832,
      "কারির": 5833,
      "মাং": 5834,
      "মাপ": 5835,
      "মাহা": 5836,
      "মাখা": 5837,
      "মায়ের": 5838,
      "মালাই": 5839,
      "মালী": 5840,
      "মাড়ো": 5841,
      "মাঠে": 5842,
      "মালয়": 5843,
      "মাঝি": 5844,
      "মালিক": 5845,
      "ভাটা": 5846,
      "ভাড়া": 5847,
      "ভাষি": 5848,
      "ভাঙা": 5849,
      "ভাজাই": 5850,
      "দেরতো": 5851,
      "স্ফ": 5852,
      "স্নে": 5853,
      "স্বাদ": 5854,
      "স্নায়": 5855,
      "স্মৃ": 5856,
      "স্পতি": 5857,
      "স্নানের": 5858,
      "লোকটা": 5859,
      "লোচন": 5860,
      "লোকেরা": 5861,
      "লোহিত": 5862,
      "লোলুপ": 5863,
      "াইল": 5864,
      "াইলেন": 5865,
      "রিং": 5866,
      "রিশ": 5867,
      "রিটি": 5868,
      "রিকতা": 5869,
      "রিসার্": 5870,
      "রিহার্": 5871,
      "রিপোর্": 5872,
      "ত্মা": 5873,
      "ত্থবৃ": 5874,
      "গুটি": 5875,
      "গুড়": 5876,
      "গুণে": 5877,
      "সাঁ": 5878,
      "সাত": 5879,
      "সাতে": 5880,
      "সাদা": 5881,
      "সাম্": 5882,
      "সাধা": 5883,
      "সাপ্": 5884,
      "সাথে": 5885,
      "সাষ্টা": 5886,
      "সাবধান": 5887,
      "সাগরে": 5888,
      "সায়াহ্": 5889,
      "্যাদার": 5890,
      "্যায়ের": 5891,
      "্যামী": 5892,
      "দেড়": 5893,
      "দেবের": 5894,
      "দেহে": 5895,
      "দেহের": 5896,
      "দেশিক": 5897,
      "দেবাল": 5898,
      "দাদ": 5899,
      "দাহ": 5900,
      "দাতার": 5901,
      "দাবর": 5902,
      "দাতারা": 5903,
      "দাশয়": 5904,
      "দাসী": 5905,
      "দাত্রী": 5906,
      "দ্বয়": 5907,
      "ভিটা": 5908,
      "ভিড়": 5909,
      "ভিয়ে": 5910,
      "ভিজি": 5911,
      "ভিতর": 5912,
      "ভিন্ন": 5913,
      "ভিড়ে": 5914,
      "ভিত্তি": 5915,
      "ষ্ণা": 5916,
      "ষ্ঠা": 5917,
      "ষ্টাকে": 5918,
      "ষ্টাই": 5919,
      "ষ্টায়": 5920,
      "ষ্পুত্র": 5921,
      "ষ্কারের": 5922,
      "অনুশাস": 5923,
      "অনুতাপে": 5924,
      "অনুৎসাহি": 5925,
      "চিন": 5926,
      "চিল": 5927,
      "চিকা": 5928,
      "চিভার": 5929,
      "চিংড়ি": 5930,
      "য়েছ": 5931,
      "য়েতে": 5932,
      "য়েমির": 5933,
      "মিন": 5934,
      "মিকা": 5935,
      "মিতা": 5936,
      "মিছি": 5937,
      "মিনি": 5938,
      "মিয়া": 5939,
      "মিশাই": 5940,
      "চায়": 5941,
      "চাটা": 5942,
      "চালে": 5943,
      "চাপা": 5944,
      "চাচা": 5945,
      "চাওয়া": 5946,
      "চাষে": 5947,
      "চাপড়": 5948,
      "চাপান": 5949,
      "চালাক": 5950,
      "গাত্র": 5951,
      "গাথা": 5952,
      "গাছা": 5953,
      "গাওয়া": 5954,
      "গাঠি": 5955,
      "গাড়িটা": 5956,
      "গাওয়": 5957,
      "কুরু": 5958,
      "কুণ্ড": 5959,
      "কুটির": 5960,
      "কুঞ্জ": 5961,
      "কুঠু": 5962,
      "কুক্কুট": 5963,
      "জালই": 5964,
      "জাতির": 5965,
      "জাতিতে": 5966,
      "জাপান": 5967,
      "হাজ": 5968,
      "হাদের": 5969,
      "হাড়": 5970,
      "হাসে": 5971,
      "হায়াকু": 5972,
      "নেপ": 5973,
      "নেহর": 5974,
      "নেতাদের": 5975,
      "দিব": 5976,
      "দিতে": 5977,
      "দিবার": 5978,
      "দিল্": 5979,
      "দিকেই": 5980,
      "দিনই": 5981,
      "করুন": 5982,
      "স্তান": 5983,
      "স্তাই": 5984,
      "স্তব্ধ": 5985,
      "অপকার": 5986,
      "অপঘাত": 5987,
      "অপকর্মে": 5988,
      "অপছন্দের": 5989,
      "উপধার": 5990,
      "উপরের": 5991,
      "উপকণ্ঠ": 5992,
      "উপভাষ": 5993,
      "উপজাতি": 5994,
      "উপদেবতা": 5995,
      "উপনেতা": 5996,
      "খাতা": 5997,
      "খামে": 5998,
      "খালটা": 5999,
      "খাচ্ছ": 6000,
      "খাতির": 6001,
      "খালার": 6002,
      "খাটুনি": 6003,
      "শিত": 6004,
      "শিম": 6005,
      "শিকার": 6006,
      "শিয়ার": 6007,
      "শিরো": 6008,
      "শিবলি": 6009,
      "শিরায়": 6010,
      "শিলাবৃষ্টি": 6011,
      "তারার": 6012,
      "তারকা": 6013,
      "তারাই": 6014,
      "ড়াবে": 6015,
      "অভিম": 6016,
      "অভিয": 6017,
      "অভিমত": 6018,
      "অভিবাসী": 6019,
      "অভিগম": 6020,
      "অভিগমন": 6021,
      "শালায়": 6022,
      "শাসিত": 6023,
      "থাম": 6024,
      "থাকু": 6025,
      "থামাই": 6026,
      "ম্বা": 6027,
      "ম্বার": 6028,
      "ম্লেচ্ছ": 6029,
      "ত্তির": 6030,
      "ত্ত্ব": 6031,
      "কিলো": 6032,
      "কিন্ত": 6033,
      "কিনী": 6034,
      "কিরী": 6035,
      "কিঞ্চি": 6036,
      "কিছুর": 6037,
      "কিনারা": 6038,
      "অবজ্ঞ": 6039,
      "অবশ্য": 6040,
      "অবধূ": 6041,
      "অবসাদের": 6042,
      "অবদমন": 6043,
      "মানা": 6044,
      "মানভূ": 6045,
      "ছাউ": 6046,
      "ছাল": 6047,
      "ছাপা": 6048,
      "ছাড়া": 6049,
      "ছাড়ি": 6050,
      "ত্মীয়": 6051,
      "মেন": 6052,
      "মেনে": 6053,
      "মেঘা": 6054,
      "মেশ্বর": 6055,
      "বরই": 6056,
      "বরযাত্র": 6057,
      "পিয়া": 6058,
      "পিয়ে": 6059,
      "পিছু": 6060,
      "পিপী": 6061,
      "পিতামা": 6062,
      "পিটুনি": 6063,
      "পিপড়ার": 6064,
      "গুলোতে": 6065,
      "ন্দী": 6066,
      "ন্দরী": 6067,
      "ন্দারা": 6068,
      "ানোই": 6069,
      "ংশু": 6070,
      "আত্মপরি": 6071,
      "আত্মসন্ত": 6072,
      "আত্মশুদ্ধ": 6073,
      "আত্মত্যাগ": 6074,
      "আত্মনিবে": 6075,
      "অধাতুর": 6076,
      "জিহ্": 6077,
      "জিফে": 6078,
      "জিন্দে": 6079,
      "কালক্ষেপ": 6080,
      "কালক্ষেপণ": 6081,
      "একত": 6082,
      "একটা": 6083,
      "এককাল": 6084,
      "একদৌ": 6085,
      "একদল": 6086,
      "ঙ্গে": 6087,
      "হিমালয়": 6088,
      "কর্কটি": 6089,
      "মুল": 6090,
      "মুছা": 6091,
      "মুখো": 6092,
      "মুহু": 6093,
      "বারোহ": 6094,
      "বারিসিঞ্চ": 6095,
      "রেলিঙ": 6096,
      "সেফ": 6097,
      "সেন্": 6098,
      "সেপ্": 6099,
      "সেধে": 6100,
      "সেবক": 6101,
      "সেখানের": 6102,
      "নীয়ের": 6103,
      "নীতির": 6104,
      "তুমি": 6105,
      "তুল্য": 6106,
      "ল্পিত": 6107,
      "সিন": 6108,
      "সিল": 6109,
      "সিকি": 6110,
      "সিপালি": 6111,
      "বুরা": 6112,
      "বুুড়ি": 6113,
      "যাকা": 6114,
      "যাতায়া": 6115,
      "জনদের": 6116,
      "জননী": 6117,
      "জনহীন": 6118,
      "জন্যে": 6119,
      "ভাবেও": 6120,
      "রুচি": 6121,
      "রুটির": 6122,
      "রুগ্": 6123,
      "বাসনা": 6124,
      "বাসস্থান": 6125,
      "চারীর": 6126,
      "পেতে": 6127,
      "পেপার": 6128,
      "পেক্ষা": 6129,
      "সহজ": 6130,
      "সহন": 6131,
      "সহ্য": 6132,
      "সহচর": 6133,
      "সহধর্": 6134,
      "সহমরণ": 6135,
      "ঞ্চির": 6136,
      "ঞ্জের": 6137,
      "দুল": 6138,
      "দুটো": 6139,
      "দুজনে": 6140,
      "দুগ্ধ": 6141,
      "পরিবার": 6142,
      "পরিধান": 6143,
      "পরিত্যা": 6144,
      "পরিবর্ত": 6145,
      "পরিহাস": 6146,
      "পরিচিত": 6147,
      "পরিচ্ছন্ন": 6148,
      "পরিণয়": 6149,
      "পরিবারের": 6150,
      "ীনগর": 6151,
      "যোগী": 6152,
      "যোগাই": 6153,
      "স্থির": 6154,
      "ব্যের": 6155,
      "ব্যতি": 6156,
      "ব্যর্থ": 6157,
      "লুকা": 6158,
      "লুকি": 6159,
      "লুকো": 6160,
      "সংবাদ": 6161,
      "সংজ্ঞা": 6162,
      "সংস্থান": 6163,
      "সংক্ষেপ": 6164,
      "সংবরণ": 6165,
      "সংকোচ": 6166,
      "সংলগ্ন": 6167,
      "সংঘর্": 6168,
      "খেই": 6169,
      "খেত": 6170,
      "খেতা": 6171,
      "খেয়া": 6172,
      "ওয়ালার": 6173,
      "দারের": 6174,
      "দারুণ": 6175,
      "কোট": 6176,
      "কোন": 6177,
      "কোনও": 6178,
      "কোষের": 6179,
      "কোলেস্": 6180,
      "বাদই": 6181,
      "ক্রয়": 6182,
      "ডাম্": 6183,
      "ডালটি": 6184,
      "পরগ": 6185,
      "পরানো": 6186,
      "পরলোক": 6187,
      "পরক্ষণ": 6188,
      "অন্তস্থল": 6189,
      "হারে": 6190,
      "হারায়": 6191,
      "পুট": 6192,
      "পুঁচ": 6193,
      "পুতুল": 6194,
      "পুণ্য": 6195,
      "পুৎনর": 6196,
      "কর্মের": 6197,
      "কর্মীর": 6198,
      "কর্মীদের": 6199,
      "কর্মকর্ত": 6200,
      "কর্মচারী": 6201,
      "কর্মচারীদের": 6202,
      "িতকে": 6203,
      "প্রাজ্ঞ": 6204,
      "প্রাণি": 6205,
      "প্রাপ্য": 6206,
      "প্রাসাদের": 6207,
      "কাঁচা": 6208,
      "কাঁসর": 6209,
      "সুক": 6210,
      "সুখে": 6211,
      "সুধার": 6212,
      "সুকুমার": 6213,
      "সুযোগ": 6214,
      "সুবিবেচনা": 6215,
      "সুন্দরী": 6216,
      "দেশকে": 6217,
      "দেশভক্ত": 6218,
      "দেশবিদ্র": 6219,
      "অংশগ্রহ": 6220,
      "অংশটুকুর": 6221,
      "রণে": 6222,
      "ঘামা": 6223,
      "ঘাড়ে": 6224,
      "শুনি": 6225,
      "শুনে": 6226,
      "শুক্র": 6227,
      "শুধু": 6228,
      "গোস": 6229,
      "গোলই": 6230,
      "গোলকে": 6231,
      "গোপী": 6232,
      "গোপন": 6233,
      "গোটানো": 6234,
      "গোপালা": 6235,
      "গোর্খা": 6236,
      "গোদাবর": 6237,
      "উদ্ভা": 6238,
      "ধাতুর": 6239,
      "শ্রান্ত": 6240,
      "অক্ষয়ের": 6241,
      "উত্তম": 6242,
      "চেয়ে": 6243,
      "চেহার": 6244,
      "চেয়ার": 6245,
      "চেনার": 6246,
      "চেষ্টা": 6247,
      "টো": 6248,
      "টেম্বর": 6249,
      "বোজা": 6250,
      "বোঝা": 6251,
      "চুক": 6252,
      "চুনের": 6253,
      "মনটা": 6254,
      "গির্": 6255,
      "গিয়েছে": 6256,
      "গিয়েছিল": 6257,
      "গিনীকে": 6258,
      "মারি": 6259,
      "টারপো": 6260,
      "তোলা": 6261,
      "তোমরা": 6262,
      "টুকরো": 6263,
      "ানিবৃত্তি": 6264,
      "তরকারি": 6265,
      "করায়": 6266,
      "নারই": 6267,
      "নারায়": 6268,
      "শোধ": 6269,
      "শোফার": 6270,
      "শোভন": 6271,
      "ধারণের": 6272,
      "প্তা": 6273,
      "শেল": 6274,
      "শো": 6275,
      "শেখর": 6276,
      "সারা": 6277,
      "সারি": 6278,
      "আবছার": 6279,
      "ণাম": 6280,
      "পুরনো": 6281,
      "পুরদ্বার": 6282,
      "পুরসভা": 6283,
      "পুরপ্রাচীর": 6284,
      "পুরললনা": 6285,
      "মূহূর্ত": 6286,
      "লটাই": 6287,
      "জীবর": 6288,
      "দ্রোগ": 6289,
      "পূর্বের": 6290,
      "পূর্বেই": 6291,
      "ফুট": 6292,
      "ফুলে": 6293,
      "ফুলকে": 6294,
      "ফুপার": 6295,
      "খোরা": 6296,
      "খোলার": 6297,
      "খোলায়": 6298,
      "দানার": 6299,
      "টোর": 6300,
      "টোম্যা": 6301,
      "টোপাধ্যায়": 6302,
      "দীশ": 6303,
      "দীপ্ত": 6304,
      "আসন": 6305,
      "আসর": 6306,
      "আসবা": 6307,
      "গতকাল": 6308,
      "গতভাবে": 6309,
      "গতরাত্র": 6310,
      "গেঁ": 6311,
      "গেছো": 6312,
      "শীতল": 6313,
      "শীঘ্র": 6314,
      "রাজের": 6315,
      "রাজবা": 6316,
      "রাজপু": 6317,
      "রাজত্ব": 6318,
      "মোটা": 6319,
      "মোড়": 6320,
      "মোড়া": 6321,
      "ক্ষেত": 6322,
      "ক্ষেপে": 6323,
      "অনিদ্রা": 6324,
      "গণক": 6325,
      "জেক": 6326,
      "জেট": 6327,
      "জেলা": 6328,
      "জেনানা": 6329,
      "তেরো": 6330,
      "ধুন": 6331,
      "বলতে": 6332,
      "বলতেছি": 6333,
      "ভুত": 6334,
      "ভুট্টা": 6335,
      "ভুমিকা": 6336,
      "সময়ে": 6337,
      "সমক্ষে": 6338,
      "ঘুষ": 6339,
      "ঘুমি": 6340,
      "ঘুমের": 6341,
      "ঠাকুরের": 6342,
      "বনকর্তা": 6343,
      "বনবিহার": 6344,
      "বন্যার": 6345,
      "বৃন্দ": 6346,
      "বৃন্দা": 6347,
      "বৃন্দের": 6348,
      "আলোকি": 6349,
      "আলোকিত": 6350,
      "জোন": 6351,
      "জোর": 6352,
      "জোরে": 6353,
      "যন্ত্রা": 6354,
      "যন্ত্রপা": 6355,
      "অধিকর্তা": 6356,
      "অধিপত্য": 6357,
      "উৎকো": 6358,
      "উৎপাত": 6359,
      "উৎসর্গ": 6360,
      "উৎসব": 6361,
      "উৎপত্তি": 6362,
      "উৎক্ষেপণ": 6363,
      "উৎখাত": 6364,
      "চলন": 6365,
      "জুই": 6366,
      "জুক": 6367,
      "জুটি": 6368,
      "জুতা": 6369,
      "জুলু": 6370,
      "জুতো": 6371,
      "জুড়েই": 6372,
      "জারি": 6373,
      "ষাট": 6374,
      "ষায়": 6375,
      "ধানে": 6376,
      "ভাগই": 6377,
      "কলার": 6378,
      "কলকা": 6379,
      "নোই": 6380,
      "নোর": 6381,
      "তাকেও": 6382,
      "লাইসেন্": 6383,
      "স্বজন": 6384,
      "ফিন": 6385,
      "ফির": 6386,
      "ফিরাই": 6387,
      "ভূখণ্ড": 6388,
      "সরস্ব": 6389,
      "সরকারি": 6390,
      "সরবরা": 6391,
      "সর্বা": 6392,
      "সর্গের": 6393,
      "সম্প্র": 6394,
      "সম্ভাব": 6395,
      "সম্মুখ": 6396,
      "সম্বন্ধ": 6397,
      "সম্ভ্রম": 6398,
      "সম্ভাবনা": 6399,
      "ময়দা": 6400,
      "ময়তায়ই": 6401,
      "অগ্রজ": 6402,
      "অগ্রভাগ": 6403,
      "অগ্রজের": 6404,
      "অগ্রগাম": 6405,
      "ঝাঁকি": 6406,
      "নুন": 6407,
      "ফাংশ": 6408,
      "ফাটাকে": 6409,
      "বাহন": 6410,
      "বাহ্য": 6411,
      "অনাহূ": 6412,
      "আপনি": 6413,
      "আমল": 6414,
      "ডিউ": 6415,
      "ব্দ": 6416,
      "ব্লক": 6417,
      "ান্ন": 6418,
      "ান্নাম": 6419,
      "প্রতিম": 6420,
      "প্রতিকূল": 6421,
      "প্রতিবেশী": 6422,
      "আয়ুর্": 6423,
      "অন্তর্ঘাত": 6424,
      "অন্তর্বাসে": 6425,
      "দোষে": 6426,
      "মীরি": 6427,
      "ানেরই": 6428,
      "ানেরও": 6429,
      "অন্নক": 6430,
      "দাঁড়িয়ে": 6431,
      "ভেড়া": 6432,
      "খুব": 6433,
      "বীজ": 6434,
      "রোদ": 6435,
      "হেঁকে": 6436,
      "অবিবাহি": 6437,
      "অবিবাহিত": 6438,
      "ছুটি": 6439,
      "ছুড়ি": 6440,
      "ছুটিতে": 6441,
      "ছুটিটা": 6442,
      "যেখানে": 6443,
      "কদেরকে": 6444,
      "লটিকে": 6445,
      "সমাজের": 6446,
      "সমাগম": 6447,
      "নির্জন": 6448,
      "পাইতেন": 6449,
      "দায়ি": 6450,
      "উন্মুখ": 6451,
      "উন্মো": 6452,
      "পত্রলেখা": 6453,
      "অক্ষরবি": 6454,
      "অক্ষরটিকে": 6455,
      "অক্ষরলিপি": 6456,
      "ঘোম": 6457,
      "ঘোর": 6458,
      "ঘোড়া": 6459,
      "ঘোষণ": 6460,
      "ঘোমটা": 6461,
      "বর্ষণ": 6462,
      "বর্ধন": 6463,
      "বেশভূ": 6464,
      "ছাত্রী": 6465,
      "ছাত্রীদের": 6466,
      "ধমকাল": 6467,
      "ধমকালে": 6468,
      "অপ্রকৃত": 6469,
      "পথ্য": 6470,
      "সাহসিক": 6471,
      "পূর্বপ্রান্ত": 6472,
      "অকালবৃষ্টি": 6473,
      "অকালরাত্র": 6474,
      "অকালবৃদ্ধ": 6475,
      "অকালপক্ব": 6476,
      "অকালবিদা": 6477,
      "জলখাবার": 6478,
      "তৃতীয়": 6479,
      "তৃষ্ণা": 6480,
      "কাশফুল": 6481,
      "হাঁসি": 6482,
      "মুখের": 6483,
      "মুখচো": 6484,
      "মুখবেগ": 6485,
      "উপাস্য": 6486,
      "উপাচার্য": 6487,
      "মহলের": 6488,
      "মহদাশয়": 6489,
      "গর্ব": 6490,
      "ব্যবসা": 6491,
      "ব্যবচ্ছেদ": 6492,
      "ছোট": 6493,
      "ণেও": 6494,
      "কার্যকর": 6495,
      "খানার": 6496,
      "খানাই": 6497,
      "কামনা": 6498,
      "লেইক": 6499,
      "পাত্রে": 6500,
      "পাত্রপক্ষ": 6501,
      "ট্ট": 6502,
      "গ্রামের": 6503,
      "গ্রাহী": 6504,
      "উত্তরবঙ্গ": 6505,
      "অঙ্গনে": 6506,
      "কূলে": 6507,
      "গঠিত": 6508,
      "গঠনর": 6509,
      "পতিত": 6510,
      "ফোর্": 6511,
      "ফেসবু": 6512,
      "মন্দের": 6513,
      "যৌব": 6514,
      "যৌবনের": 6515,
      "দেবীর": 6516,
      "অপরিণাম": 6517,
      "সর্বত্র": 6518,
      "সর্বশরীর": 6519,
      "সর্বনাশ": 6520,
      "তলদেশে": 6521,
      "তরুণী": 6522,
      "তরুণের": 6523,
      "তরুতল": 6524,
      "ভোট": 6525,
      "ভোর": 6526,
      "ভোজন": 6527,
      "কায়িক": 6528,
      "অন্যত্র": 6529,
      "কারিতার": 6530,
      "কারিণী": 6531,
      "বুঝিয়া": 6532,
      "যুক্তরাষ্ট্র": 6533,
      "অক্সফো": 6534,
      "অক্টো": 6535,
      "আস্তিক": 6536,
      "নিতান্ত": 6537,
      "তুলসী": 6538,
      "অভ্যু": 6539,
      "আলয়": 6540,
      "আলতা": 6541,
      "গীতি": 6542,
      "নবকুমার": 6543,
      "নবগোপাল": 6544,
      "বয়সে": 6545,
      "জীবনই": 6546,
      "অগ্নিপরীক্ষার": 6547,
      "আখ্য": 6548,
      "আখড়াই": 6549,
      "আখচাষি": 6550,
      "গৃহের": 6551,
      "প্ল্য": 6552,
      "প্লেক্": 6553,
      "সঙ্গী": 6554,
      "সঙ্গীরা": 6555,
      "চিত্রগুপ্ত": 6556,
      "অঙ্কটি": 6557,
      "অঙ্কুর": 6558,
      "আঁচল": 6559,
      "ইউরে": 6560,
      "ইউনিয়": 6561,
      "গানবাজ": 6562,
      "জানত": 6563,
      "লক্ষ্মী": 6564,
      "ক্ষমতা": 6565,
      "হাসপাতা": 6566,
      "অংশগ্রহণে": 6567,
      "অংশগ্রহণকারীরা": 6568,
      "সমাজব্যব": 6569,
      "সমাজনাম": 6570,
      "সমাজতত্ত্ব": 6571,
      "ঘনকটা": 6572,
      "ধ্বনিত": 6573,
      "ধ্বংসা": 6574,
      "ভ্রাতু": 6575,
      "কেন্দ্রের": 6576,
      "ভালোমানুষ": 6577,
      "ভালোবাসে": 6578,
      "ভালোবাসি": 6579,
      "আইনজীবি": 6580,
      "আইনশৃঙ্": 6581,
      "আশাবাদী": 6582,
      "ঢাক": 6583,
      "ঢালু": 6584,
      "পরামর্": 6585,
      "রূপী": 6586,
      "লজ্জার": 6587,
      "নিরপরাধ": 6588,
      "শিক্ষার": 6589,
      "শিক্ষাই": 6590,
      "মুক্তার": 6591,
      "যাত্রার": 6592,
      "আলাপন": 6593,
      "আবাসিক": 6594,
      "আবাসস্থল": 6595,
      "উদ্যম": 6596,
      "কয়েদীর": 6597,
      "কম্প": 6598,
      "কম্পন": 6599,
      "দূরের": 6600,
      "দূরেরই": 6601,
      "সন্দেহ": 6602,
      "নীয়ভাবে": 6603,
      "বোধন": 6604,
      "ফাঁপানো": 6605,
      "উচ্চশাখা": 6606,
      "আটকাই": 6607,
      "উদয়ন": 6608,
      "উদযাপ": 6609,
      "খরার": 6610,
      "ঘরটি": 6611,
      "ঘরটার": 6612,
      "থেকে": 6613,
      "দক্ষতা": 6614,
      "স্বামীকে": 6615,
      "কুমারীর": 6616,
      "কুমারীকে": 6617,
      "শিল্পী": 6618,
      "শিল্পীদের": 6619,
      "উত্তরায়ণ": 6620,
      "ইঞ্জেক": 6621,
      "উজ্জ্": 6622,
      "উজ্জীবনের": 6623,
      "জয়ী": 6624,
      "জয়ধ্ব": 6625,
      "জন্মের": 6626,
      "মহাশয়ের": 6627,
      "শব্দে": 6628,
      "শব্দা": 6629,
      "অনেকটা": 6630,
      "পুত্রপ্রাপ্ত": 6631,
      "দোষের": 6632,
      "বায়ুমন্ড": 6633,
      "উন্নতি": 6634,
      "ব্যাধি": 6635,
      "ব্যাঙ্ক": 6636,
      "মহিষের": 6637,
      "লটক": 6638,
      "কারেরা": 6639,
      "চিত্তক্ষুধা": 6640,
      "চিত্তরঞ্": 6641,
      "হাততুল": 6642,
      "কমিশন": 6643,
      "তর্কের": 6644,
      "তর্কটা": 6645,
      "ফোন": 6646,
      "ফেরি": 6647,
      "মৌতা": 6648,
      "বাবদ": 6649,
      "বিনোদি": 6650,
      "বিনোদার": 6651,
      "পাঠান": 6652,
      "খাঁড়": 6653,
      "শাসক": 6654,
      "স্থিতি": 6655,
      "মনোবিদ": 6656,
      "পতনে": 6657,
      "মরসু": 6658,
      "মর্ত্য": 6659,
      "হৃদ্রোগ": 6660,
      "বেগম": 6661,
      "গাঁথি": 6662,
      "দুর্নিবার": 6663,
      "অন্তর্যামী": 6664,
      "শুভদৃষ্টি": 6665,
      "ঠাকুরানীর": 6666,
      "অত্যাচারি": 6667,
      "আদব": 6668,
      "একাধিক": 6669,
      "কানন": 6670,
      "চর্ম": 6671,
      "চর্চার": 6672,
      "ঠোকরা": 6673,
      "তুরঙ্গ": 6674,
      "ারাগ্রাফ": 6675,
      "প্রেমে": 6676,
      "প্রেক্ষিত": 6677,
      "সামঞ্জ": 6678,
      "সাম্রাজ্য": 6679,
      "নেত্রে": 6680,
      "প্রাণদণ্ড": 6681,
      "খোঁচা": 6682,
      "যুদ্ধের": 6683,
      "যুদ্ধক্ষেত্র": 6684,
      "যুদ্ধবিদ্য": 6685,
      "ভূমিতে": 6686,
      "আংটা": 6687,
      "চটপ": 6688,
      "চরিতার্থ": 6689,
      "ধোলাই": 6690,
      "পৌরু": 6691,
      "মতপ্রকাশ": 6692,
      "রক্ষার": 6693,
      "রক্ষীর": 6694,
      "হরিহ": 6695,
      "হরিনাথ": 6696,
      "তেমনি": 6697,
      "পাথরে": 6698,
      "পালন": 6699,
      "অনুপম": 6700,
      "অনুপস্থিত": 6701,
      "আত্মীয়তা": 6702,
      "টেলিফে": 6703,
      "গিরির": 6704,
      "অনিয়মি": 6705,
      "দৃষ্টিতে": 6706,
      "উদ্ধৃত": 6707,
      "গৃহস্থ": 6708,
      "শরীরে": 6709,
      "শরীরবৃত্ত": 6710,
      "ইসলামী": 6711,
      "আওয়ালকে": 6712,
      "এখন": 6713,
      "কদম": 6714,
      "চলাচ": 6715,
      "দশক": 6716,
      "নকক্ষে": 6717,
      "নদীনা": 6718,
      "নদীতীর": 6719,
      "নদীতট": 6720,
      "পূজা": 6721,
      "পূজো": 6722,
      "সৃষ্ট": 6723,
      "তামাশা": 6724,
      "বিতান": 6725,
      "বিতরণ": 6726,
      "বিধবার": 6727,
      "গুরুত্ব": 6728,
      "গুরুদেব": 6729,
      "গুরুশিষ": 6730,
      "চিহ্নিত": 6731,
      "কর্তব্যগুলো": 6732,
      "কর্তব্যগুলি": 6733,
      "উচ্চাকাঙ্": 6734,
      "অমর্যাদা": 6735,
      "গর্ভধারণ": 6736,
      "আভাস": 6737,
      "আন্তরিকতা": 6738,
      "আঁচড়": 6739,
      "গবেষণ": 6740,
      "বড়োবাজার": 6741,
      "বজ্রমন্দ্র": 6742,
      "মণ্ডিত": 6743,
      "তেজপাতা": 6744,
      "অনীহা": 6745,
      "গুনগু": 6746,
      "দ্বারের": 6747,
      "কুঁক": 6748,
      "করেন": 6749,
      "অপরূপা": 6750,
      "শিশুকে": 6751,
      "অভিজ্ঞতা": 6752,
      "অবনমন": 6753,
      "পরিমাপ": 6754,
      "খিলাল": 6755,
      "আবৃত্তিক": 6756,
      "ইংরেজ": 6757,
      "আমাশয়": 6758,
      "আত্নীয়": 6759,
      "আত্নীয়ের": 6760,
      "আশ্বিন": 6761,
      "আগ্রহী": 6762,
      "ইস্কু": 6763,
      "ইস্কুল": 6764,
      "উল্টো": 6765,
      "কড়কড়": 6766,
      "খনন": 6767,
      "চমক": 6768,
      "ধনুকটি": 6769,
      "মরাঠি": 6770,
      "মরিচ": 6771,
      "রক্তকর": 6772,
      "সন্ধ্যায়": 6773,
      "সৌরভে": 6774,
      "বিপিনের": 6775,
      "বিভাগের": 6776,
      "নাশক": 6777,
      "পাড়াপড়": 6778,
      "অনুসন্ধানী": 6779,
      "চিন্তিত": 6780,
      "চিন্তারা": 6781,
      "উপভোগ্য": 6782,
      "সিংহের": 6783,
      "খিলান": 6784,
      "অতখান": 6785,
      "অসমত": 6786,
      "অসমতলে": 6787,
      "অণুকাব্য": 6788,
      "গমদৃশ্য": 6789,
      "ছাইয়া": 6790,
      "জগন্নাথ": 6791,
      "জগদীশ": 6792,
      "তৈরি": 6793,
      "তৈমুর": 6794,
      "তৈরীর": 6795,
      "দয়াশী": 6796,
      "মুরগ": 6797,
      "মুরগি": 6798,
      "সোনা": 6799,
      "স্রোত": 6800,
      "সুরলোক": 6801,
      "বিকশিত": 6802,
      "বিদ্যু": 6803,
      "বিদ্যুৎ": 6804,
      "রাত্রি": 6805,
      "ক্ষারক": 6806,
      "ক্ষতিকর": 6807,
      "স্পশ্য": 6808,
      "অভিবাসীদের": 6809,
      "যুবতী": 6810,
      "নিয়ন্ত্রিত": 6811,
      "কয়েকজন": 6812,
      "আসামী": 6813,
      "ডেন্": 6814,
      "দূষণ": 6815,
      "দূরেই": 6816,
      "পদ্ধতি": 6817,
      "ম্যাগনেশিয়া": 6818,
      "ীকরণের": 6819,
      "কাঞ্চী": 6820,
      "মামলার": 6821,
      "সাধুর": 6822,
      "কুটকুট": 6823,
      "জাহান্নাম": 6824,
      "সংস্কারের": 6825,
      "সংস্কৃতি": 6826,
      "আবশ্যিক": 6827,
      "পার্শ্বে": 6828,
      "আলোচনাসভা": 6829,
      "ভাগ্যপরীক্ষা": 6830,
      "বর্ণভেদ": 6831,
      "ট্রায়া": 6832,
      "অংশীদারিত্ব": 6833,
      "অংশীদারিমূলক": 6834,
      "অগোচ": 6835,
      "অগোচর": 6836,
      "অচেনার": 6837,
      "অচেতন": 6838,
      "ইহলৌকি": 6839,
      "ইন্টার্": 6840,
      "ইন্টারপো": 6841,
      "ঔপনিবেশি": 6842,
      "কলেরা": 6843,
      "খসড়া": 6844,
      "খদ্দর": 6845,
      "গড়ালি": 6846,
      "গৌরব": 6847,
      "ছদ্মবেশ": 6848,
      "দলেরই": 6849,
      "ধরনের": 6850,
      "বছরের": 6851,
      "বন্ধন": 6852,
      "মদিনা": 6853,
      "যত্নে": 6854,
      "হোটে": 6855,
      "কাঠঠোকরা": 6856,
      "ক্লাউড": 6857,
      "ক্লাউডি": 6858,
      "অনুচরশ্রেণী": 6859,
      "অধস্তনের": 6860,
      "অন্তঃশূন্য": 6861,
      "অন্তরালের": 6862,
      "উত্তাপ": 6863,
      "উত্তেজনা": 6864,
      "মারাত্ম": 6865,
      "মারাঠি": 6866,
      "মারাত্মক": 6867,
      "অধ্যাপকদের": 6868,
      "আদালতে": 6869,
      "উপস্থাপক": 6870,
      "যোগ্য": 6871,
      "অভাগিনী": 6872,
      "অভাজনেরা": 6873,
      "অ্যাজে": 6874,
      "অ্যাচিভার": 6875,
      "আড্ড": 6876,
      "ইটখোলা": 6877,
      "কণিকার": 6878,
      "ঘেঁ": 6879,
      "জরিত": 6880,
      "ডোম": 6881,
      "নানার": 6882,
      "প্যারাগ্রাফ": 6883,
      "পঞ্জি": 6884,
      "ল্যাবরে": 6885,
      "হস্তে": 6886,
      "বিড়াল": 6887,
      "লাকড়িই": 6888,
      "স্পর্শে": 6889,
      "স্নেহমিশ্র": 6890,
      "সাক্ষী": 6891,
      "অনুমতি": 6892,
      "শিরার": 6893,
      "অবহেলা": 6894,
      "অবহেলার": 6895,
      "মেষযূ": 6896,
      "হিঁচড়ে": 6897,
      "পুনঃ": 6898,
      "উত্পাদক": 6899,
      "ফুসফুস": 6900,
      "রাজনীতি": 6901,
      "রাজনীতির": 6902,
      "উৎপীড়িত": 6903,
      "অগ্রগতি": 6904,
      "অগ্রগতিতে": 6905,
      "তর্কবাচ": 6906,
      "আফ্রিকা": 6907,
      "চতুর্দো": 6908,
      "ত্রুটিহীন": 6909,
      "দস্যুপতি": 6910,
      "পণ্ডিতের": 6911,
      "অহংকার": 6912,
      "আওতা": 6913,
      "আক্রমণ": 6914,
      "জগতের": 6915,
      "তত্ত্": 6916,
      "ধরাধা": 6917,
      "পলায়ন": 6918,
      "পত্তির": 6919,
      "পড়াশো": 6920,
      "বকধার্": 6921,
      "কাটারি": 6922,
      "বাস্তব": 6923,
      "বাস্তবের": 6924,
      "বিধিবিড়ম্ব": 6925,
      "রাজাগোপালা": 6926,
      "নাগাল্যান্ড": 6927,
      "পাড়মুখ": 6928,
      "পাখির": 6929,
      "প্রতারণা": 6930,
      "প্রতারণার": 6931,
      "প্রস্তুত": 6932,
      "প্রস্তুতকরণ": 6933,
      "অনুকরণীয়": 6934,
      "মিনারে": 6935,
      "হামলা": 6936,
      "হাদিগকে": 6937,
      "অপচেষ্টার": 6938,
      "অপসারণ": 6939,
      "উপলক্ষে": 6940,
      "অভিযোগকারী": 6941,
      "অভিনন্দন": 6942,
      "গ্রন্থ": 6943,
      "আত্মনিয়ন্ত্রণ": 6944,
      "হিংসাব্রত": 6945,
      "সহস্ররশ্": 6946,
      "সহস্ররক্তকর": 6947,
      "পরিবহণ": 6948,
      "খেলাধুলো": 6949,
      "পুরাতন": 6950,
      "প্রাঙ্গণের": 6951,
      "য়ারিং": 6952,
      "উত্থাপ": 6953,
      "অনিচ্ছাকৃত": 6954,
      "উৎপাট": 6955,
      "উৎপাটন": 6956,
      "আড়ংগাছা": 6957,
      "অভ্যর্থনা": 6958,
      "দোষারো": 6959,
      "খুঁতখুঁত": 6960,
      "কমিশনার": 6961,
      "সূত্রে": 6962,
      "প্রেমসুধার": 6963,
      "টেলিভিশন": 6964,
      "আস্বাদগ্রহণ": 6965,
      "ইউনিফর্": 6966,
      "পঁচিশ": 6967,
      "মীমাংসার": 6968,
      "কুসুমকো": 6969,
      "অশ্রুসে": 6970,
      "পৃথিবীকে": 6971,
      "অদিতি": 6972,
      "অভাগার": 6973,
      "আমোদ": 6974,
      "আচ্ছাদন": 6975,
      "আক্রোশ": 6976,
      "ইচ্ছুক": 6977,
      "উদীচী": 6978,
      "খয়রাতি": 6979,
      "চীনে": 6980,
      "চীৎকার": 6981,
      "দুর্যোগ": 6982,
      "নভোর": 6983,
      "পরাজয়": 6984,
      "পশ্চাতের": 6985,
      "শয়নকক্ষ": 6986,
      "সৌভাগ্য": 6987,
      "সৌজন্য": 6988,
      "বিজ্ঞাপন": 6989,
      "বিরোধী": 6990,
      "বিশ্ববিদ্যা": 6991,
      "নিঃশেষ": 6992,
      "নিঃশব্দ": 6993,
      "প্রত্যাশ": 6994,
      "সাধ্যসাধ": 6995,
      "দেওয়ান": 6996,
      "অনুবাদক": 6997,
      "চামিচ": 6998,
      "হাস্যে": 6999,
      "করমর্দ": 7000,
      "উপত্যকা": 7001,
      "উপনির্বাচন": 7002,
      "উপদ্বীপ": 7003,
      "খাটাশ": 7004,
      "অভিভূতও": 7005,
      "অভিজাততন্ত্র": 7006,
      "অভিযোজনসহ": 7007,
      "অবনীন্দ্রনাথ": 7008,
      "অববাহিকা": 7009,
      "পিপাসা": 7010,
      "পিপাসি": 7011,
      "আত্মহত্য": 7012,
      "হিন্দুস্থান": 7013,
      "হিন্দুবীর": 7014,
      "মুহূর্তের": 7015,
      "পুষ্প": 7016,
      "উত্ফুল্ল": 7017,
      "সার্টিফি": 7018,
      "পুরোধা": 7019,
      "পুরোহিত": 7020,
      "যুগান্ত": 7021,
      "মোহন": 7022,
      "গণপরিষদ": 7023,
      "ভুবনবিজয়": 7024,
      "বৃদ্ধির": 7025,
      "ষাঁড়": 7026,
      "অনামিকাদের": 7027,
      "অবিসংবাদি": 7028,
      "উচ্চারণ": 7029,
      "স্ত্রীলোক": 7030,
      "প্লাবি": 7031,
      "আলোকসজ্জায়": 7032,
      "আধিক্য": 7033,
      "অধ্যবসায়": 7034,
      "উদ্যোগে": 7035,
      "কম্বুকণ্ঠ": 7036,
      "কম্বুগ্রী": 7037,
      "ইঞ্জিন": 7038,
      "অলংকার": 7039,
      "বিনোদনে": 7040,
      "গম্বুজ": 7041,
      "গম্বুজা": 7042,
      "কচুরিপান": 7043,
      "ভবিষ্যদ্বাণীর": 7044,
      "গবেষক": 7045,
      "আলাপচারিতা": 7046,
      "অম্বুবা": 7047,
      "আশ্চর্যজনক": 7048,
      "ঐতিহ্য": 7049,
      "মূর্তিটি": 7050,
      "জ্যোতির্": 7051,
      "আলিঙ্গন": 7052,
      "তাড়াহুড়া": 7053,
      "উপঢৌকন": 7054,
      "অস্থিচর্ম": 7055,
      "আন্দাজ": 7056,
      "আউশকান্": 7057,
      "ইস্তফা": 7058,
      "ইস্তফার": 7059,
      "উর্দি": 7060,
      "উর্দু": 7061,
      "উলটাদিকে": 7062,
      "কখনও": 7063,
      "কটুকাট": 7064,
      "গন্ডগোল": 7065,
      "ঘ্যানঘ্যান": 7066,
      "চ্যালে": 7067,
      "চ্যাপে": 7068,
      "ফ্রি": 7069,
      "ভৃত্য": 7070,
      "ভদ্রপুরুষ": 7071,
      "মধুর": 7072,
      "যতিচিহ্ন": 7073,
      "শত্রুসৈন্য": 7074,
      "কাদম্বর": 7075,
      "কাফন": 7076,
      "পাঁজর": 7077,
      "প্রশ্ন": 7078,
      "প্রদর্শনই": 7079,
      "মাতৃহীন": 7080,
      "মাতৃস্নেহমিশ্র": 7081,
      "ভালবাস": 7082,
      "স্কুলে": 7083,
      "অনুধ্যান": 7084,
      "অনুমোদন": 7085,
      "অপবিত্রকরণ": 7086,
      "উপদ্রব": 7087,
      "উপযোগিতা": 7088,
      "অবচেত": 7089,
      "অবসাদগ্রস্ত": 7090,
      "আত্মসংযম": 7091,
      "অধর্মা": 7092,
      "অধোগতি": 7093,
      "একটানা": 7094,
      "হিসাব": 7095,
      "হিসাবে": 7096,
      "বুড়োর": 7097,
      "শ্বেত": 7098,
      "সরোষ": 7099,
      "ন্যায্য": 7100,
      "অগ্ন্যাশয়ের": 7101,
      "ছাত্রলীগ": 7102,
      "কথাসাহিত্যিক": 7103,
      "কথাবার্তা": 7104,
      "তৃণশয": 7105,
      "আড়ৎদার": 7106,
      "আস্তিন": 7107,
      "ওয়ারিস": 7108,
      "পরামানিক": 7109,
      "আহ্লাদ": 7110,
      "উত্তরাধিকারী": 7111,
      "অবাস্তব": 7112,
      "অম্লজান": 7113,
      "সৌরমণ্ডল": 7114,
      "সংশয়মত্ত": 7115,
      "গ্রীষ্মকাল": 7116,
      "অংকন": 7117,
      "অভিশংসন": 7118,
      "সূর্যস্পশ্য": 7119,
      "উৎপীড়ন": 7120,
      "আর্তনাদ": 7121,
      "ইতস্তত": 7122,
      "সাফল্যের": 7123,
      "অপ্সরী": 7124,
      "গিন্নীবান্": 7125,
      "আঁতুড়ঘর": 7126,
      "অপ্রাসঙ্গিক": 7127,
      "ওলন্দাজ": 7128,
      "গাম্ভীর্য": 7129,
      "অম্বরী": 7130,
      "অমীমাংসি": 7131,
      "আয়াত": 7132,
      "ঐকমত্য": 7133,
      "ঔদ্ধত্য": 7134,
      "ঔদার্য": 7135,
      "কচকচ": 7136,
      "ধীরে": 7137,
      "পদারবি": 7138,
      "পদার্থ": 7139,
      "ভট্টাচার": 7140,
      "ভট্টাচার্য": 7141,
      "ম্যুনি": 7142,
      "শ্যাম": 7143,
      "শহীদ": 7144,
      "কেলেঙ্": 7145,
      "কাশ্মীর": 7146,
      "কাশ্মীরি": 7147,
      "কাছারি": 7148,
      "তেমনতর": 7149,
      "বিরিয়": 7150,
      "বিরিঞ্চি": 7151,
      "পাষণ্ডহস্ত": 7152,
      "প্রমাণ": 7153,
      "প্রতীক্ষা": 7154,
      "প্রলয়খড়": 7155,
      "ত্রিশ": 7156,
      "সাক্ষাৎ": 7157,
      "অনুরাগী": 7158,
      "অনুঘটক": 7159,
      "অপক্ষপাতি": 7160,
      "শামুক": 7161,
      "আত্মোৎসর্গ": 7162,
      "বুভুক্ষু": 7163,
      "রুখসার": 7164,
      "কোণবিহার": 7165,
      "পুঁটে": 7166,
      "প্রাসাদবাতায়": 7167,
      "দেশদ্রো": 7168,
      "দেশদ্রোহ": 7169,
      "গোয়েন্দা": 7170,
      "অভেদ": 7171,
      "আলোকরশ্মি": 7172,
      "বেরিয়েছি": 7173,
      "অন্তর্নিহিত": 7174,
      "অন্তর্মুখীন": 7175,
      "ভেটকি": 7176,
      "বর্ষাবারিসিঞ্চ": 7177,
      "নিয়মদণ্ড": 7178,
      "পাত্রীপক্ষ": 7179,
      "যৌগিক": 7180,
      "চতুষ্পদ": 7181,
      "গুনগুনানি": 7182,
      "আবৃতবী": 7183,
      "কড়মড়": 7184,
      "অগোছালো": 7185,
      "পঞ্চাশ": 7186,
      "অগ্ন্যুৎপাত": 7187,
      "উদীচীকে": 7188,
      "উদ্বোধন": 7189,
      "অস্তাচল": 7190,
      "অশ্বত্থবৃ": 7191,
      "আড়ম্বর": 7192,
      "ইজরায়ে": 7193,
      "ওমরাহ": 7194,
      "কন্যার": 7195,
      "চ্যুতি": 7196,
      "চণ্ডীমণ্ড": 7197,
      "চট্টোপাধ্যায়": 7198,
      "ননঅ্যাচিভার": 7199,
      "প্যাকেজের": 7200,
      "বসুন্ধ": 7201,
      "মঞ্চে": 7202,
      "রফতানি": 7203,
      "লঙ্কা": 7204,
      "কোথা": 7205,
      "কালিন্দী": 7206,
      "কাসুন্দি": 7207,
      "টিপুনি": 7208,
      "বিপুল": 7209,
      "লাঞ্ছ": 7210,
      "ক্ষীণ": 7211,
      "ক্ষোভ": 7212,
      "নিষেধ": 7213,
      "কার্নি": 7214,
      "ভাগাভাগি": 7215,
      "গুজরাতি": 7216,
      "দ্বন্দ্ব": 7217,
      "মিস্টু": 7218,
      "অপর্ণা": 7219,
      "উপেক্ষা": 7220,
      "শাশুড়": 7221,
      "অবশকরণ": 7222,
      "গ্রহাণু": 7223,
      "মেদজিফে": 7224,
      "জিজ্ঞাসা": 7225,
      "হিংস্র": 7226,
      "মুসলমান": 7227,
      "মুচমুচে": 7228,
      "সিঁড়ি": 7229,
      "দুনিয়ার": 7230,
      "স্থূল": 7231,
      "সংখ্য": 7232,
      "পুষ্টকলে": 7233,
      "কর্মসূচি": 7234,
      "গোঁফদা": 7235,
      "উত্তোল": 7236,
      "শেখানো": 7237,
      "সার্থক": 7238,
      "ধিক্কার": 7239,
      "রোহিঙ্গা": 7240,
      "ক্ষুধানিবৃত্তি": 7241,
      "পীড়াপী": 7242,
      "ইতিমধ্যে": 7243,
      "ফাঁসানো": 7244,
      "বৈঠক": 7245,
      "ফোঁটা": 7246,
      "কন্যাদায়গ্রস্ত": 7247,
      "গাঁটকাটা": 7248,
      "দুর্ভিক্ষ": 7249,
      "দুর্গাপুজো": 7250,
      "অত্যাবশ্যকীয়": 7251,
      "হরিণনেত্র": 7252,
      "সংশোধন": 7253,
      "অনুসারীমাত্র": 7254,
      "ছক্কাপঞ্": 7255,
      "প্যারী": 7256,
      "প্রথমবার": 7257,
      "অগ্ন্যুত্পাত": 7258,
      "বেয়াদবি": 7259,
      "পুরস্কারবিতরণ": 7260,
      "দক্ষিণবায়ু": 7261,
      "ধ্রুবব্র": 7262,
      "চপেটাঘাত": 7263,
      "শত্রুরক্ত": 7264,
      "স্কোয়্যার": 7265,
      "অবরোধ": 7266,
      "অগস্ট": 7267,
      "অশ্বারোহ": 7268,
      "অসুখবি": 7269,
      "অ্যান্টি": 7270,
      "আষঢ়": 7271,
      "ইয়েমেন": 7272,
      "ইন্দো": 7273,
      "ইষ্টকপ্রাচীর": 7274,
      "এজিং": 7275,
      "এগারো": 7276,
      "এনটিসি": 7277,
      "ওলাউঠা": 7278,
      "কঠোর": 7279,
      "খ্রীষ্টা": 7280,
      "গন্ধি": 7281,
      "চৌকাঠ": 7282,
      "চকিতের": 7283,
      "চঞ্চু": 7284,
      "ছট্ফ": 7285,
      "জপনির": 7286,
      "জরুরি": 7287,
      "তম্বুরা": 7288,
      "দরিদ্র": 7289,
      "দম্পতি": 7290,
      "দম্পতির": 7291,
      "ফ্লা": 7292,
      "বঞ্চিত": 7293,
      "ভলতেয়ার": 7294,
      "মৈরাঙ": 7295,
      "মৎস্য": 7296,
      "মঞ্জরী": 7297,
      "শশিশেখর": 7298,
      "ষোলো": 7299,
      "সচেতন": 7300,
      "সদৃশ": 7301,
      "সতীমাহা": 7302,
      "সত্ত্বেও": 7303,
      "হঠাৎ": 7304,
      "হর্ম্যশি": 7305,
      "কাউন্সিল": 7306,
      "বাতুলতার": 7307,
      "বিপাকক্রিয়া": 7308,
      "অনপরাধি": 7309,
      "নিষিদ্ধ": 7310,
      "নিস্পৃহ": 7311,
      "নিউইয়ার": 7312,
      "পাঞ্জা": 7313,
      "পাষাণদুর্": 7314,
      "পাবলিশার্": 7315,
      "প্ররোচনা": 7316,
      "প্রশিক্ষণ": 7317,
      "মাড়োয়ারি": 7318,
      "রিহার্শাল": 7319,
      "সাপ্লাই": 7320,
      "চাপানউতো": 7321,
      "কুক্কুটমাংস": 7322,
      "নেহরুর": 7323,
      "শিবলিঙ্গ": 7324,
      "কিরীটচূ": 7325,
      "কিঞ্চিৎ": 7326,
      "পিতামাতা": 7327,
      "আত্মসন্তুষ্টি": 7328,
      "আত্মশুদ্ধির": 7329,
      "জিহ্বা": 7330,
      "সেপ্টেম্বর": 7331,
      "সহধর্মি": 7332,
      "সংঘর্ষ": 7333,
      "কোলেস্টের": 7334,
      "পুঁচকি": 7335,
      "পুণ্যার্থ": 7336,
      "গোর্খাল্যান্ড": 7337,
      "ফাটাকেষ্ট": 7338,
      "ভ্রাতুষ্পুত্র": 7339,
      "সামঞ্জস্য": 7340,
      "তৈমুরলঙ্গ": 7341,
      "ইন্টার্নশি": 7342,
      "ল্যাবরেট": 7343,
      "রাজাগোপালাচারি": 7344,
      "ম্যুনিসিপালি": 7345,
      "অশ্বত্থবৃক্ষ": 7346,
      "চণ্ডীমণ্ডপ": 7347,
      "সতীমাহাত্ম": 7348,
      "ঁই": 7349,
      "ঁত": 7350,
      "ঁর": 7351,
      "ঁটি": 7352,
      "ঁড়": 7353,
      "ঁচি": 7354,
      "ঁচা": 7355,
      "ঁপু": 7356,
      "ঁকানো": 7357,
      "ঁকির": 7358,
      "ঁদেরই": 7359,
      "ঁয়াজ": 7360,
      "ঁধানো": 7361,
      "ংলি": 7362,
      "ংকার": 7363,
      "ংকর": 7364,
      "ংক্ত": 7365,
      "ংবার": 7366,
      "ংসার": 7367,
      "ঃপ্রণালী": 7368,
      "ঃপুরের": 7369,
      "অফ": 7370,
      "অগা": 7371,
      "অমান": 7372,
      "অসি": 7373,
      "অভাবে": 7374,
      "অত্য": 7375,
      "অদ্য": 7376,
      "অরাজ": 7377,
      "অচল": 7378,
      "অকালে": 7379,
      "অপ্রতি": 7380,
      "অমৃ": 7381,
      "অকথা": 7382,
      "অলী": 7383,
      "অগার": 7384,
      "অমেঘ": 7385,
      "অকৌশ": 7386,
      "অম্ব": 7387,
      "অখন": 7388,
      "অস্তি": 7389,
      "অসুর": 7390,
      "অচেতনা": 7391,
      "অমূল": 7392,
      "অকল্যা": 7393,
      "অখ্যাত": 7394,
      "অগণিত": 7395,
      "অমনই": 7396,
      "অটল": 7397,
      "অকৌশল": 7398,
      "অবেলা": 7399,
      "অসাধারণ": 7400,
      "অসামান্য": 7401,
      "অসম্ভব": 7402,
      "অসন্তুষ্ট": 7403,
      "অবেলায়": 7404,
      "অমিল": 7405,
      "অসির": 7406,
      "অকালেই": 7407,
      "অসুবিধা": 7408,
      "অসহি": 7409,
      "অসফল": 7410,
      "অকাজে": 7411,
      "অকর্মা": 7412,
      "অশান্তির": 7413,
      "অদূরবর্তী": 7414,
      "অদূরে": 7415,
      "অস্বাভাবিক": 7416,
      "অকাজের": 7417,
      "অমিতা": 7418,
      "অসহ্য": 7419,
      "অস্থির": 7420,
      "অকূলে": 7421,
      "অসাধুর": 7422,
      "অযোগ্য": 7423,
      "অহিংসাব্রত": 7424,
      "অসাধ্যসাধ": 7425,
      "অসূর্যস্পশ্য": 7426,
      "অসাফল্যের": 7427,
      "অসংখ্য": 7428,
      "অকিঞ্চিৎ": 7429,
      "অসামঞ্জস্য": 7430,
      "আটা": 7431,
      "আদে": 7432,
      "আগা": 7433,
      "আজা": 7434,
      "আহা": 7435,
      "আনে": 7436,
      "আশি": 7437,
      "আবার": 7438,
      "আসে": 7439,
      "আটার": 7440,
      "আসার": 7441,
      "আছেন": 7442,
      "আফু": 7443,
      "আয়ের": 7444,
      "আনায়": 7445,
      "আড়া": 7446,
      "আষা": 7447,
      "আতাই": 7448,
      "আজ্ঞান": 7449,
      "আনাই": 7450,
      "আনিত": 7451,
      "আগার": 7452,
      "আড়াই": 7453,
      "আগের": 7454,
      "আকারের": 7455,
      "আধিকার": 7456,
      "আনিয়া": 7457,
      "আভাই": 7458,
      "আহারা": 7459,
      "আগুন": 7460,
      "আচম": 7461,
      "আনিতে": 7462,
      "আকারই": 7463,
      "আকর্ষ": 7464,
      "আতাটি": 7465,
      "আকারে": 7466,
      "আড়িতে": 7467,
      "আশির": 7468,
      "আউট": 7469,
      "আনাচ": 7470,
      "আয়াতে": 7471,
      "আনিবে": 7472,
      "আজই": 7473,
      "আকাশে": 7474,
      "আজও": 7475,
      "আস্থাই": 7476,
      "আঘাতে": 7477,
      "আঘাতই": 7478,
      "আড়াল": 7479,
      "আস্বাভাবিক": 7480,
      "আসুক": 7481,
      "আক্ষেপে": 7482,
      "ইও": 7483,
      "ইটি": 7484,
      "ইক্ষ": 7485,
      "ইনি": 7486,
      "ইছা": 7487,
      "ইহার": 7488,
      "ইটে": 7489,
      "ইতর": 7490,
      "ইচ্ছে": 7491,
      "ইতিক": 7492,
      "ইটের": 7493,
      "ইটই": 7494,
      "ইহাই": 7495,
      "ইনিই": 7496,
      "ইহাকে": 7497,
      "ইহাতে": 7498,
      "ইহাও": 7499,
      "ইয়ারিং": 7500,
      "ঈগ": 7501,
      "ঈষ": 7502,
      "ঈদের": 7503,
      "ঈদে": 7504,
      "উক": 7505,
      "উন": 7506,
      "উয": 7507,
      "উল": 7508,
      "উতি": 7509,
      "উড়": 7510,
      "উচা": 7511,
      "উকি": 7512,
      "উক্ত": 7513,
      "উহার": 7514,
      "উধা": 7515,
      "উড়ি": 7516,
      "উঠা": 7517,
      "উলার": 7518,
      "উট্র": 7519,
      "উটের": 7520,
      "উচিত": 7521,
      "উটকে": 7522,
      "উনিই": 7523,
      "উজিরা": 7524,
      "উড়িয়ে": 7525,
      "উড়াইয়া": 7526,
      "উষ্ণ": 7527,
      "উজানে": 7528,
      "উভয়ে": 7529,
      "উজিক": 7530,
      "ঋণী": 7531,
      "ঋণে": 7532,
      "ঋণকে": 7533,
      "ঋণই": 7534,
      "এও": 7535,
      "এন": 7536,
      "এফ": 7537,
      "এল": 7538,
      "এে": 7539,
      "এটা": 7540,
      "এতে": 7541,
      "এদের": 7542,
      "এনে": 7543,
      "এলেন": 7544,
      "এয়ার": 7545,
      "একেই": 7546,
      "এতেই": 7547,
      "এতই": 7548,
      "এটাই": 7549,
      "এলেই": 7550,
      "এটুকু": 7551,
      "এরূপ": 7552,
      "এড়ানো": 7553,
      "এদিকে": 7554,
      "এবারে": 7555,
      "এড়িয়ে": 7556,
      "এইট": 7557,
      "এমনই": 7558,
      "এড়াইয়া": 7559,
      "এপারে": 7560,
      "এশিয়া": 7561,
      "এবারও": 7562,
      "এগিয়ে": 7563,
      "এঁরা": 7564,
      "এক্ষণে": 7565,
      "এঁদের": 7566,
      "এশিয়ার": 7567,
      "এঁদেরই": 7568,
      "ওই": 7569,
      "ওঝ": 7570,
      "ওঠ": 7571,
      "ওকে": 7572,
      "ওটা": 7573,
      "ওদের": 7574,
      "ওয়ে": 7575,
      "ওছে": 7576,
      "ওদি": 7577,
      "ওড়া": 7578,
      "ওগো": 7579,
      "ওঠা": 7580,
      "ওহে": 7581,
      "ওটাকে": 7582,
      "ওড়ে": 7583,
      "ওড়ানো": 7584,
      "ওরই": 7585,
      "ওজনের": 7586,
      "ওলট": 7587,
      "ওয়ান": 7588,
      "ওড়ানো": 7589,
      "ওগুলোকে": 7590,
      "ওদিকে": 7591,
      "ওদেরই": 7592,
      "ওজনকে": 7593,
      "ওঁকে": 7594,
      "ওড়ানোর": 7595,
      "ওজনও": 7596,
      "ওঁরা": 7597,
      "ওখানের": 7598,
      "ওরিটি": 7599,
      "ওলেইক": 7600,
      "ঔরসে": 7601,
      "কব": 7602,
      "কস": 7603,
      "কৈ": 7604,
      "কবে": 7605,
      "কহা": 7606,
      "কনের": 7607,
      "কজন": 7608,
      "কওয়া": 7609,
      "কড়ি": 7610,
      "কপার": 7611,
      "কত্ব": 7612,
      "কক্ষে": 7613,
      "কচল": 7614,
      "কড়া": 7615,
      "কনো": 7616,
      "কলাই": 7617,
      "কতই": 7618,
      "কানে": 7619,
      "কানের": 7620,
      "কফে": 7621,
      "কলাতে": 7622,
      "কস্তা": 7623,
      "কটের": 7624,
      "কলাটি": 7625,
      "কফের": 7626,
      "কনাটা": 7627,
      "কখন": 7628,
      "কসুর": 7629,
      "কচলি": 7630,
      "কবেই": 7631,
      "কংশের": 7632,
      "কচুর": 7633,
      "কস্তার": 7634,
      "কণাকে": 7635,
      "কান্না": 7636,
      "কণাই": 7637,
      "ক্যাল": 7638,
      "কনিষ্ঠা": 7639,
      "কল্পিত": 7640,
      "কসিন": 7641,
      "কঞ্চির": 7642,
      "খম": 7643,
      "খটা": 7644,
      "খরা": 7645,
      "খলা": 7646,
      "খসা": 7647,
      "খড়": 7648,
      "খছে": 7649,
      "খিক": 7650,
      "খরে": 7651,
      "খসে": 7652,
      "খলই": 7653,
      "খ্যায়": 7654,
      "খনির": 7655,
      "খতম": 7656,
      "খলিত": 7657,
      "খলতা": 7658,
      "খরায়": 7659,
      "খচিত": 7660,
      "খনিতে": 7661,
      "খনিই": 7662,
      "খড়ির": 7663,
      "খড়িতে": 7664,
      "খড়িটা": 7665,
      "খবরে": 7666,
      "খধ্বনি": 7667,
      "খড়ই": 7668,
      "খবরের": 7669,
      "খড়ের": 7670,
      "খরাতে": 7671,
      "খড়িই": 7672,
      "খসিয়া": 7673,
      "গদ": 7674,
      "গূ": 7675,
      "গবা": 7676,
      "গলা": 7677,
      "গলে": 7678,
      "গদ্": 7679,
      "গঙ্গ": 7680,
      "গানি": 7681,
      "গড়া": 7682,
      "গলাই": 7683,
      "গলার": 7684,
      "গানে": 7685,
      "গহ্": 7686,
      "গানের": 7687,
      "গতিক": 7688,
      "গড়ে": 7689,
      "গলাতে": 7690,
      "গড়ার": 7691,
      "গতিকে": 7692,
      "গতিটা": 7693,
      "গলিত": 7694,
      "গবাদি": 7695,
      "গলির": 7696,
      "গঢ়": 7697,
      "গড়ের": 7698,
      "গ্যাস": 7699,
      "ঘাই": 7700,
      "ঘনী": 7701,
      "ঘরণ": 7702,
      "ঘড়ি": 7703,
      "ঘানি": 7704,
      "ঘষা": 7705,
      "ঘরো": 7706,
      "ঘরই": 7707,
      "ঘরেই": 7708,
      "ঘটিকা": 7709,
      "ঘানির": 7710,
      "ঘড়টা": 7711,
      "ঘষার": 7712,
      "ঘরাও": 7713,
      "ঘানিতে": 7714,
      "ঙে": 7715,
      "ঙার": 7716,
      "চরা": 7717,
      "চলো": 7718,
      "চানো": 7719,
      "চকের": 7720,
      "চূর্": 7721,
      "চটে": 7722,
      "চড়ি": 7723,
      "চয়ের": 7724,
      "চকই": 7725,
      "চক্ষে": 7726,
      "চকটা": 7727,
      "চড়ে": 7728,
      "চনটা": 7729,
      "চড়াই": 7730,
      "চান্": 7731,
      "চয়ন": 7732,
      "চনও": 7733,
      "চকটি": 7734,
      "চমকে": 7735,
      "চলাতে": 7736,
      "চড়ানো": 7737,
      "চটের": 7738,
      "চনীয়": 7739,
      "চক্রান্ত": 7740,
      "চড়াতে": 7741,
      "চলিয়া": 7742,
      "চকিয়ে": 7743,
      "চড়াও": 7744,
      "চকিতা": 7745,
      "চকিতে": 7746,
      "চকুণ্ড": 7747,
      "চউন্মুখ": 7748,
      "ছড়": 7749,
      "ছয়": 7750,
      "ছকে": 7751,
      "ছরা": 7752,
      "ছরি": 7753,
      "ছনে": 7754,
      "ছত্ত": 7755,
      "ছনের": 7756,
      "ছানো": 7757,
      "ছকের": 7758,
      "ছলাম": 7759,
      "ছানা": 7760,
      "ছনই": 7761,
      "ছড়া": 7762,
      "ছকটি": 7763,
      "ছটাকে": 7764,
      "ছয়ই": 7765,
      "ছনটি": 7766,
      "ছড়ার": 7767,
      "ছড়ানো": 7768,
      "ছড়াটি": 7769,
      "ছড়িয়ে": 7770,
      "ছলাক": 7771,
      "ছড়ায়": 7772,
      "ছতরে": 7773,
      "ছন্দে": 7774,
      "ছনটায়": 7775,
      "ছকটির": 7776,
      "ছয়টা": 7777,
      "ছটফ": 7778,
      "জক": 7779,
      "জট": 7780,
      "জব": 7781,
      "জলে": 7782,
      "জপা": 7783,
      "জপি": 7784,
      "জানো": 7785,
      "জবার": 7786,
      "জঞ্": 7787,
      "জড়ি": 7788,
      "জটে": 7789,
      "জলকে": 7790,
      "জপুর": 7791,
      "জলটা": 7792,
      "জমের": 7793,
      "জলক": 7794,
      "জলার": 7795,
      "জানের": 7796,
      "জজের": 7797,
      "জড়ানো": 7798,
      "জমাই": 7799,
      "জটের": 7800,
      "জ্যে": 7801,
      "জরই": 7802,
      "জড়ো": 7803,
      "জয়ই": 7804,
      "জগের": 7805,
      "জড়ানো": 7806,
      "জমানো": 7807,
      "জড়িয়ে": 7808,
      "জড়ের": 7809,
      "জড়াইয়া": 7810,
      "জড়িত": 7811,
      "জটটা": 7812,
      "জবানের": 7813,
      "জড়াবে": 7814,
      "জব্দ": 7815,
      "জখম": 7816,
      "ঝে": 7817,
      "ঝকে": 7818,
      "ঝরা": 7819,
      "ঝনা": 7820,
      "ঝরি": 7821,
      "ঝলক": 7822,
      "ঝড়ে": 7823,
      "ঝড়ে": 7824,
      "ঝরিতে": 7825,
      "টদ": 7826,
      "টস": 7827,
      "টান": 7828,
      "টমা": 7829,
      "টনে": 7830,
      "টনই": 7831,
      "টকই": 7832,
      "টনকে": 7833,
      "টকটা": 7834,
      "টবের": 7835,
      "টবকে": 7836,
      "টকট": 7837,
      "টকবি": 7838,
      "টওয়ালা": 7839,
      "টবও": 7840,
      "টবটি": 7841,
      "টানিতে": 7842,
      "টগরে": 7843,
      "ঠকে": 7844,
      "ঠক্": 7845,
      "ঠাই": 7846,
      "ঠিত": 7847,
      "ঠকুমার": 7848,
      "ঠকানো": 7849,
      "ডস": 7850,
      "ডান": 7851,
      "ডলা": 7852,
      "ড্যা": 7853,
      "ডিক": 7854,
      "ডজন": 7855,
      "ডলার": 7856,
      "ডলাতে": 7857,
      "ডজনের": 7858,
      "ডজনে": 7859,
      "ডজনই": 7860,
      "ডানায়": 7861,
      "ডানার": 7862,
      "ঢি": 7863,
      "ঢের": 7864,
      "ঢলা": 7865,
      "ঢলে": 7866,
      "ঢিল": 7867,
      "ঢুকে": 7868,
      "ণতে": 7869,
      "ণতি": 7870,
      "ণীরাও": 7871,
      "তদ": 7872,
      "তৄ": 7873,
      "তবে": 7874,
      "তক্ত": 7875,
      "তানো": 7876,
      "তমু": 7877,
      "তব্য": 7878,
      "তদার": 7879,
      "তটে": 7880,
      "তপ্ত": 7881,
      "তভাব": 7882,
      "তীকে": 7883,
      "ততই": 7884,
      "তনও": 7885,
      "তকারি": 7886,
      "তনাকে": 7887,
      "তবিজ": 7888,
      "তজমা": 7889,
      "তখনি": 7890,
      "তথ্য": 7891,
      "তউদয়": 7892,
      "তকমা": 7893,
      "তথ্যের": 7894,
      "থক": 7895,
      "থলি": 7896,
      "থাই": 7897,
      "থ্যা": 7898,
      "থলের": 7899,
      "থিত": 7900,
      "থানা": 7901,
      "থনও": 7902,
      "থার্": 7903,
      "থলেই": 7904,
      "থ্যে": 7905,
      "থেরা": 7906,
      "থলির": 7907,
      "থানায়": 7908,
      "থানার": 7909,
      "দক": 7910,
      "দলা": 7911,
      "দয়ে": 7912,
      "দনে": 7913,
      "দানো": 7914,
      "দলাম": 7915,
      "দান্ত": 7916,
      "দড়ি": 7917,
      "দয়ার": 7918,
      "দশে": 7919,
      "দলটা": 7920,
      "দমের": 7921,
      "দধি": 7922,
      "দফা": 7923,
      "দহে": 7924,
      "দমই": 7925,
      "দলেই": 7926,
      "দনীয়": 7927,
      "দবকে": 7928,
      "দন্ড": 7929,
      "দয়াল": 7930,
      "দড়ির": 7931,
      "দড়িতে": 7932,
      "দমিত": 7933,
      "দখল": 7934,
      "দমনে": 7935,
      "দড়িটা": 7936,
      "দমনই": 7937,
      "দৈন্য": 7938,
      "দন্ডা": 7939,
      "দস্তুর": 7940,
      "দড়িই": 7941,
      "দড়িটি": 7942,
      "দগ্ধ": 7943,
      "দখলে": 7944,
      "দখলই": 7945,
      "ধী": 7946,
      "ধ্": 7947,
      "ধরু": 7948,
      "ধমন": 7949,
      "ধমের": 7950,
      "ধনকে": 7951,
      "ধবল": 7952,
      "ধকল": 7953,
      "ধোপ": 7954,
      "ধরেই": 7955,
      "ধবলে": 7956,
      "ধকলের": 7957,
      "ধমনই": 7958,
      "নদ": 7959,
      "নল": 7960,
      "নূ": 7961,
      "নৃ": 7962,
      "নতে": 7963,
      "নলে": 7964,
      "নতি": 7965,
      "নদে": 7966,
      "নানো": 7967,
      "নহি": 7968,
      "নমু": 7969,
      "নরে": 7970,
      "নলের": 7971,
      "নখে": 7972,
      "নষ্ট": 7973,
      "নড়ি": 7974,
      "নলই": 7975,
      "নলটা": 7976,
      "নয়ের": 7977,
      "নতির": 7978,
      "নকল": 7979,
      "নভে": 7980,
      "নহে": 7981,
      "নলটি": 7982,
      "নতিতে": 7983,
      "নম্বর": 7984,
      "নয়ই": 7985,
      "নতিটা": 7986,
      "নবাব": 7987,
      "নপ্রায়": 7988,
      "নড়ির": 7989,
      "নড়িতে": 7990,
      "নখই": 7991,
      "নানির": 7992,
      "নদটা": 7993,
      "নড়িটা": 7994,
      "নড়িটি": 7995,
      "নদটি": 7996,
      "নজরে": 7997,
      "নজরের": 7998,
      "নফ্লা": 7999,
      "পক": 8000,
      "পৈ": 8001,
      "পয়": 8002,
      "পকার": 8003,
      "পঙ্": 8004,
      "পশি": 8005,
      "পনের": 8006,
      "পচার": 8007,
      "পীন": 8008,
      "পান্ত": 8009,
      "পচে": 8010,
      "পটু": 8011,
      "পানি": 8012,
      "পলকে": 8013,
      "পণা": 8014,
      "পদী": 8015,
      "পবন": 8016,
      "পলক": 8017,
      "পড়ে": 8018,
      "পণে": 8019,
      "পণের": 8020,
      "পট্": 8021,
      "পড়ানো": 8022,
      "পলতা": 8023,
      "পরেই": 8024,
      "পানকে": 8025,
      "পনিক": 8026,
      "পছন্দ": 8027,
      "পবনের": 8028,
      "পভূত": 8029,
      "পবনে": 8030,
      "ফরা": 8031,
      "ফলি": 8032,
      "ফানো": 8033,
      "ফলই": 8034,
      "ফলকে": 8035,
      "ফলক": 8036,
      "ফলাই": 8037,
      "ফস্ব": 8038,
      "ফার্": 8039,
      "ফলী": 8040,
      "ফলেই": 8041,
      "ফতুর": 8042,
      "ফারা": 8043,
      "ফজর": 8044,
      "ফরিয়া": 8045,
      "ফানু": 8046,
      "ফরান": 8047,
      "ফান্ড": 8048,
      "ফজরে": 8049,
      "ফজরের": 8050,
      "বট": 8051,
      "বৌ": 8052,
      "বতি": 8053,
      "বলো": 8054,
      "বড়া": 8055,
      "বুর": 8056,
      "বম্": 8057,
      "বলেন": 8058,
      "বধা": 8059,
      "বটে": 8060,
      "বড়ি": 8061,
      "বকরা": 8062,
      "বলকে": 8063,
      "বসার": 8064,
      "বীদের": 8065,
      "বনই": 8066,
      "বকটা": 8067,
      "বতের": 8068,
      "বড়া": 8069,
      "বককে": 8070,
      "বকটি": 8071,
      "বটিতে": 8072,
      "বলেই": 8073,
      "বলাতে": 8074,
      "বস্তা": 8075,
      "বশেষ": 8076,
      "বপন": 8077,
      "বগল": 8078,
      "বানোর": 8079,
      "বস্তু": 8080,
      "বকেরা": 8081,
      "বণ্য": 8082,
      "বলেও": 8083,
      "বচন্দ্র": 8084,
      "বস্তি": 8085,
      "বকির": 8086,
      "বস্থার": 8087,
      "বদলে": 8088,
      "বস্তুর": 8089,
      "বৎস": 8090,
      "বটেই": 8091,
      "বড্ড": 8092,
      "বলুক": 8093,
      "বড়াল": 8094,
      "ববলতে": 8095,
      "বগলে": 8096,
      "ভতে": 8097,
      "ভ্যা": 8098,
      "ভুর": 8099,
      "ভয়ার": 8100,
      "ভণ্ড": 8101,
      "ভয়ের": 8102,
      "ভয়ই": 8103,
      "ভয়ান": 8104,
      "ভানকে": 8105,
      "ভানই": 8106,
      "ভয়াল": 8107,
      "ভরিয়া": 8108,
      "ভদ্রা": 8109,
      "ভৎস": 8110,
      "ভগিনীর": 8111,
      "ভগিনীকে": 8112,
      "মড": 8113,
      "মলি": 8114,
      "মমি": 8115,
      "মশা": 8116,
      "মরে": 8117,
      "মদার": 8118,
      "মহার": 8119,
      "মটে": 8120,
      "মতেই": 8121,
      "ময়ের": 8122,
      "মজু": 8123,
      "মজার": 8124,
      "মলার": 8125,
      "মণী": 8126,
      "মদন": 8127,
      "মতাম": 8128,
      "মলাতে": 8129,
      "মহাস": 8130,
      "মতন": 8131,
      "মগের": 8132,
      "মলাটি": 8133,
      "ম্যের": 8134,
      "মমির": 8135,
      "মদই": 8136,
      "মলাটা": 8137,
      "মজায়": 8138,
      "মদকে": 8139,
      "মস্বভাব": 8140,
      "মডে": 8141,
      "মগ্ন": 8142,
      "মজাই": 8143,
      "মশাই": 8144,
      "মঈশ্বর": 8145,
      "মশাটা": 8146,
      "মশাটি": 8147,
      "মফস্": 8148,
      "মফস্ব": 8149,
      "যি": 8150,
      "যৎ": 8151,
      "যার": 8152,
      "যের": 8153,
      "য্য": 8154,
      "যেই": 8155,
      "যশো": 8156,
      "যতই": 8157,
      "যথে": 8158,
      "যারা": 8159,
      "যখন": 8160,
      "যতটা": 8161,
      "যমেরই": 8162,
      "রন": 8163,
      "রয়": 8164,
      "র্ত": 8165,
      "রয়ে": 8166,
      "রশি": 8167,
      "রকের": 8168,
      "রওয়া": 8169,
      "রবী": 8170,
      "রন্ধ": 8171,
      "রতন": 8172,
      "রয়েছে": 8173,
      "রমর": 8174,
      "রচিত": 8175,
      "রটানো": 8176,
      "রডে": 8177,
      "রসনা": 8178,
      "রটিয়া": 8179,
      "রয়েছেন": 8180,
      "রচনার": 8181,
      "রান্না": 8182,
      "রথের": 8183,
      "রূপা": 8184,
      "লং": 8185,
      "লত": 8186,
      "লথ": 8187,
      "লবা": 8188,
      "ললি": 8189,
      "লড়": 8190,
      "লছে": 8191,
      "লড়া": 8192,
      "লওয়া": 8193,
      "লগ্": 8194,
      "লক্ষে": 8195,
      "লীকে": 8196,
      "লবন": 8197,
      "লড়ে": 8198,
      "লতাকে": 8199,
      "লবের": 8200,
      "লবী": 8201,
      "লয়ই": 8202,
      "লানোর": 8203,
      "লবৃষ্টি": 8204,
      "লসিত": 8205,
      "লঘুর": 8206,
      "লসীমা": 8207,
      "শস": 8208,
      "শৌ": 8209,
      "শনি": 8210,
      "শঙ্": 8211,
      "শীর": 8212,
      "শক্ত": 8213,
      "শীন": 8214,
      "শনটা": 8215,
      "শস্য": 8216,
      "শনাই": 8217,
      "শস্ত্র": 8218,
      "শনির": 8219,
      "শনিক": 8220,
      "শখই": 8221,
      "শয়েই": 8222,
      "শকিল": 8223,
      "শনিবার": 8224,
      "শখেই": 8225,
      "শংসার": 8226,
      "ষম": 8227,
      "ষ্যা": 8228,
      "ষিক": 8229,
      "ষবিষ": 8230,
      "ষারে": 8231,
      "সড": 8232,
      "সতে": 8233,
      "সক্ষ": 8234,
      "সলি": 8235,
      "সদা": 8236,
      "সচি": 8237,
      "সজা": 8238,
      "সঙ্": 8239,
      "সদি": 8240,
      "সীর": 8241,
      "সনের": 8242,
      "সন্দ": 8243,
      "সকাল": 8244,
      "সমু": 8245,
      "সবার": 8246,
      "সদু": 8247,
      "সসং": 8248,
      "সওয়া": 8249,
      "সবল": 8250,
      "সকল": 8251,
      "সদর": 8252,
      "সব্": 8253,
      "সকালে": 8254,
      "সবস": 8255,
      "সজ্ঞান": 8256,
      "সবই": 8257,
      "সনাম": 8258,
      "স্যায়": 8259,
      "সীই": 8260,
      "সজীব": 8261,
      "সকালের": 8262,
      "সতর্": 8263,
      "সদয়": 8264,
      "সশব্দ": 8265,
      "সভয়": 8266,
      "সকলে": 8267,
      "সকলের": 8268,
      "সহিত": 8269,
      "সৎকার": 8270,
      "সস্তার": 8271,
      "সঅশ্রু": 8272,
      "সঅস্ত্র": 8273,
      "সদয়ের": 8274,
      "সভয়ে": 8275,
      "সকালই": 8276,
      "সকালকে": 8277,
      "সকালেই": 8278,
      "সলজ্জ": 8279,
      "সস্তাই": 8280,
      "সত্ত্ব": 8281,
      "সপ্তা": 8282,
      "সজোরে": 8283,
      "সসম্ভ্রম": 8284,
      "সশব্দে": 8285,
      "সযত্নে": 8286,
      "সপ্রমাণ": 8287,
      "সগঢ়": 8288,
      "সশস্ত্র": 8289,
      "হও": 8290,
      "হটি": 8291,
      "হবে": 8292,
      "হলি": 8293,
      "হলো": 8294,
      "হয়ে": 8295,
      "হানো": 8296,
      "হবার": 8297,
      "হকের": 8298,
      "হলাম": 8299,
      "হলেন": 8300,
      "হটে": 8301,
      "হবো": 8302,
      "হতো": 8303,
      "হানা": 8304,
      "হতেই": 8305,
      "হকরা": 8306,
      "হকই": 8307,
      "হীকে": 8308,
      "হককে": 8309,
      "হত্যা": 8310,
      "হচ্ছে": 8311,
      "হকদের": 8312,
      "হওয়ার": 8313,
      "হচ্ছিল": 8314,
      "হয়েছে": 8315,
      "হলেও": 8316,
      "হয়েছিল": 8317,
      "হোল": 8318,
      "হকারই": 8319,
      "হটানো": 8320,
      "হটাতে": 8321,
      "হয়েই": 8322,
      "হল্লা": 8323,
      "হয়েছেন": 8324,
      "হীরাই": 8325,
      "হূত": 8326,
      "হটিয়ে": 8327,
      "হদ্দ": 8328,
      "হয়েও": 8329,
      "হয়েছিলো": 8330,
      "হজম": 8331,
      "হলালকে": 8332,
      "হপ্তা": 8333,
      "হকারেরা": 8334,
      "হউক": 8335,
      "হজমের": 8336,
      "াট": 8337,
      "াপ": 8338,
      "াব": 8339,
      "ায়ে": 8340,
      "াঙ্": 8341,
      "াক্ত": 8342,
      "াহার": 8343,
      "াধ্য": 8344,
      "াগের": 8345,
      "াধারা": 8346,
      "াবস্থা": 8347,
      "াবতী": 8348,
      "াদিত": 8349,
      "াতীত": 8350,
      "াতৄ": 8351,
      "িন": 8352,
      "িব": 8353,
      "িলের": 8354,
      "িমের": 8355,
      "িয়ের": 8356,
      "িণী": 8357,
      "িনীকে": 8358,
      "ীত": 8359,
      "ীড়া": 8360,
      "ীতায়": 8361,
      "ীক্ষা": 8362,
      "ীকৃত": 8363,
      "ীকারই": 8364,
      "ীয়ারা": 8365,
      "ীসগঢ়": 8366,
      "ুপ": 8367,
      "ুটা": 8368,
      "ুলে": 8369,
      "ুকি": 8370,
      "ুণা": 8371,
      "ুতই": 8372,
      "ুবর্তী": 8373,
      "ুনেত্রে": 8374,
      "ূরে": 8375,
      "ূক্ষেপ": 8376,
      "ৃদ্ধ": 8377,
      "েজ": 8378,
      "েস": 8379,
      "েয়": 8380,
      "ৈতিক": 8381,
      "ৈলিক": 8382,
      "ৈখিক": 8383,
      "োক্তি": 8384,
      "োটো": 8385,
      "োলিত": 8386,
      "োচিত": 8387,
      "োদয়": 8388,
      "োগামী": 8389,
      "োটর": 8390,
      "োদরা": 8391,
      "োপ্লেক্": 8392,
      "োযুবতী": 8393,
      "ৌঢ়": 8394,
      "্স্": 8395,
      "্মো": 8396,
      "্বী": 8397,
      "্সনা": 8398,
      "্লিষ্ট": 8399,
      "্দুল": 8400,
      "্শনিক": 8401,
      "ৎজ": 8402,
      "ৎকাল": 8403,
      "ৎকারই": 8404,
      "ৎসিত": 8405,
      "ৎসনা": 8406,
      "ৎপর্য": 8407,
      "ৎপিণ্ড": 8408,
      "ড়ুম": 8409,
      "ঢ়ে": 8410,
      "য়ং": 8411,
      "য়তার": 8412,
      "য়োগ": 8413,
      "য়ানা": 8414,
      "য়নই": 8415,
      "য়ণের": 8416,
      "য়ানো": 8417,
      "য়ত্রিশ": 8418,
      "য়ৎকাল": 8419,
      "২৬": 8420,
      "ারি": 8421,
      "েরর": 8422,
      "েরণাই": 8423,
      "্রের": 8424,
      "্রভু": 8425,
      "কেউ": 8426,
      "কেক": 8427,
      "কেশ": 8428,
      "কেস": 8429,
      "কেহ": 8430,
      "কোন": 8431,
      "কেনা": 8432,
      "কেজি": 8433,
      "কেমন": 8434,
      "কেছিল": 8435,
      "কেনার": 8436,
      "কেশে": 8437,
      "কেবল": 8438,
      "কেহই": 8439,
      "কেশন": 8440,
      "কেতন": 8441,
      "কেশর": 8442,
      "কেনিয়া": 8443,
      "কেসেই": 8444,
      "কেবিন": 8445,
      "কেশব": 8446,
      "কেবলই": 8447,
      "কোনও": 8448,
      "্যি": 8449,
      "্যমাত্র": 8450,
      "্যটুকু": 8451,
      "্যারে": 8452,
      "্য্যাদা": 8453,
      "্যস্বপ্ন": 8454,
      "্যোপাধ্যায়": 8455,
      "াননি": 8456,
      "ানুর": 8457,
      "ানিত": 8458,
      "ানেই": 8459,
      "ানান্": 8460,
      "্তিক": 8461,
      "্তির": 8462,
      "কাক": 8463,
      "কাপ": 8464,
      "কাব": 8465,
      "কালা": 8466,
      "কায়া": 8467,
      "কাকার": 8468,
      "কাহা": 8469,
      "কাস্ত": 8470,
      "কাড়া": 8471,
      "কাম্": 8472,
      "কাছা": 8473,
      "কাকের": 8474,
      "কাচার": 8475,
      "কাজু": 8476,
      "কাচ্ছে": 8477,
      "কাকাই": 8478,
      "কাঠে": 8479,
      "কাকাকে": 8480,
      "কাতুর": 8481,
      "কাকির": 8482,
      "কালিক": 8483,
      "কাচের": 8484,
      "কামানো": 8485,
      "কাজিরা": 8486,
      "কাড়িয়া": 8487,
      "কাহাকে": 8488,
      "কাশির": 8489,
      "কাকিই": 8490,
      "কাচুন": 8491,
      "কাবাবে": 8492,
      "কামিতা": 8493,
      "কাচুক": 8494,
      "টাল": 8495,
      "টাকা": 8496,
      "টালা": 8497,
      "টাকার": 8498,
      "টাকাটা": 8499,
      "টাকরা": 8500,
      "টাকাই": 8501,
      "টাকায়": 8502,
      "টাকাকে": 8503,
      "টাকির": 8504,
      "টাকাটার": 8505,
      "টাকিই": 8506,
      "টাকিতে": 8507,
      "টাকাতেই": 8508,
      "টিত": 8509,
      "টিপ": 8510,
      "টিস": 8511,
      "টিটি": 8512,
      "টিকার": 8513,
      "টিমি": 8514,
      "টিনের": 8515,
      "টিপে": 8516,
      "টিয়ার": 8517,
      "টিকাই": 8518,
      "টিপের": 8519,
      "টিকায়": 8520,
      "টিকাতে": 8521,
      "টিকাকে": 8522,
      "টিউশ": 8523,
      "টিপই": 8524,
      "টিসুর": 8525,
      "টিঁকি": 8526,
      "টিঁকে": 8527,
      "টিকস": 8528,
      "টিফার্": 8529,
      "তেলু": 8530,
      "তেলেই": 8531,
      "তেজর": 8532,
      "তেমনই": 8533,
      "তোড়": 8534,
      "র্ধ": 8535,
      "র্শি": 8536,
      "র্নু": 8537,
      "র্ডি": 8538,
      "র্শন": 8539,
      "র্ভর": 8540,
      "র্ণই": 8541,
      "র্গঠন": 8542,
      "র্ডে": 8543,
      "র্মুহু": 8544,
      "বাক": 8545,
      "বাণ": 8546,
      "বাকি": 8547,
      "বাছা": 8548,
      "বাঞ্": 8549,
      "বাপু": 8550,
      "বামন": 8551,
      "বাটার": 8552,
      "বাতো": 8553,
      "বাধার": 8554,
      "বায়ের": 8555,
      "বাধি": 8556,
      "বাগে": 8557,
      "বাতির": 8558,
      "বাধান": 8559,
      "বালাই": 8560,
      "বাত্যা": 8561,
      "বাতী": 8562,
      "বাধ্য": 8563,
      "বাপের": 8564,
      "বাড়ে": 8565,
      "বাতিতে": 8566,
      "বাগের": 8567,
      "বাতিই": 8568,
      "বালয়": 8569,
      "বাতিকে": 8570,
      "বাতিটা": 8571,
      "বাড়ানো": 8572,
      "বাসেই": 8573,
      "বাকী": 8574,
      "বাকির": 8575,
      "বালির": 8576,
      "বাড়ির": 8577,
      "বাড়িতে": 8578,
      "বাজির": 8579,
      "বাবারে": 8580,
      "বাড়াইয়া": 8581,
      "বাহাদি": 8582,
      "বাকিই": 8583,
      "বাড়ানোর": 8584,
      "বাকিতে": 8585,
      "বাড়ায়": 8586,
      "তাল": 8587,
      "তাস": 8588,
      "তালো": 8589,
      "তাগা": 8590,
      "তাজা": 8591,
      "তাকি": 8592,
      "তাসে": 8593,
      "তালের": 8594,
      "তালই": 8595,
      "তাতেই": 8596,
      "তালকে": 8597,
      "তালটা": 8598,
      "তামের": 8599,
      "তাবল": 8600,
      "তাজার": 8601,
      "তালাই": 8602,
      "তালার": 8603,
      "তাসের": 8604,
      "তালটি": 8605,
      "তাকাই": 8606,
      "তাপী": 8607,
      "তালাতে": 8608,
      "তাসই": 8609,
      "তাদেরকে": 8610,
      "তাকানো": 8611,
      "তাতেও": 8612,
      "তাসটা": 8613,
      "তাড়ানো": 8614,
      "তাহারা": 8615,
      "তাসকে": 8616,
      "তাহাই": 8617,
      "তালাকে": 8618,
      "তাংশের": 8619,
      "তালোকে": 8620,
      "তাহাকে": 8621,
      "তাড়াইয়া": 8622,
      "তাজাই": 8623,
      "তাকিয়া": 8624,
      "তাহাতে": 8625,
      "তাচার্য": 8626,
      "তাবাদের": 8627,
      "তাড়ানোর": 8628,
      "তাহাও": 8629,
      "তাত্ত্": 8630,
      "তাজাকে": 8631,
      "তাকাইয়া": 8632,
      "তাহলে": 8633,
      "তাহাদিগকে": 8634,
      "তাৎপর্য": 8635,
      "বিলা": 8636,
      "বিনা": 8637,
      "বিমা": 8638,
      "বিদ্": 8639,
      "বিদ্ধ": 8640,
      "বিজ্ঞ": 8641,
      "বিশ্": 8642,
      "বিলু": 8643,
      "বিটে": 8644,
      "বিলই": 8645,
      "বিলটা": 8646,
      "বিয়ের": 8647,
      "বিনায়": 8648,
      "বিচ্ছে": 8649,
      "বিকৃত": 8650,
      "বিকালে": 8651,
      "বিলটি": 8652,
      "বিদর্": 8653,
      "বিনাই": 8654,
      "বিবাহি": 8655,
      "বিচিত্র": 8656,
      "বিভ্র": 8657,
      "বিকতা": 8658,
      "বিগল": 8659,
      "বিকালের": 8660,
      "বিফল": 8661,
      "বিন্দু": 8662,
      "বিচরণ": 8663,
      "বিকাকে": 8664,
      "বিনাও": 8665,
      "বিবিধ": 8666,
      "বিবাদী": 8667,
      "বিনাশ": 8668,
      "বিদেশে": 8669,
      "বিরাম": 8670,
      "বিবরণ": 8671,
      "বিগুণ": 8672,
      "বিয়েই": 8673,
      "বিচারে": 8674,
      "বিমাতা": 8675,
      "বিতর্ক": 8676,
      "বিপদের": 8677,
      "বিকেল": 8678,
      "বিপক্ষে": 8679,
      "বিচার্য": 8680,
      "বিবাহিত": 8681,
      "বিভী": 8682,
      "বিক্ষত": 8683,
      "বিশ্বে": 8684,
      "বিফলে": 8685,
      "বিকেলে": 8686,
      "বিচলিত": 8687,
      "বিদেশি": 8688,
      "বিক্রে": 8689,
      "বিদীর্ণ": 8690,
      "বিড়াল": 8691,
      "বিক্ষুব্ধ": 8692,
      "বিবাদিনী": 8693,
      "বিক্ষিপ্ত": 8694,
      "বিছিয়ে": 8695,
      "বিভিন্ন": 8696,
      "বিক্রয়": 8697,
      "বিতর্কের": 8698,
      "বিচ্যুতি": 8699,
      "বিগলিত": 8700,
      "বিবাহাদি": 8701,
      "রাত": 8702,
      "রাভা": 8703,
      "রাশি": 8704,
      "রাজন": 8705,
      "রাকাটা": 8706,
      "রাগি": 8707,
      "রাতেই": 8708,
      "রামের": 8709,
      "রাখো": 8710,
      "রাগত": 8711,
      "রাগে": 8712,
      "রাতের": 8713,
      "রাময়": 8714,
      "রাতই": 8715,
      "রাশ্য": 8716,
      "রাউন্": 8717,
      "রামই": 8718,
      "রাবেন": 8719,
      "রাখাই": 8720,
      "রামকে": 8721,
      "রাগী": 8722,
      "রাগান": 8723,
      "রাগল": 8724,
      "রাগের": 8725,
      "রাখার": 8726,
      "রাপান": 8727,
      "রাখিল": 8728,
      "রাজির": 8729,
      "রাস্তার": 8730,
      "রাশিয়া": 8731,
      "রাশায়": 8732,
      "রাগিয়া": 8733,
      "রাখুন": 8734,
      "রাথন": 8735,
      "রাত্তির": 8736,
      "রাঁচি": 8737,
      "রাাগের": 8738,
      "রাকাব": 8739,
      "লাখ": 8740,
      "লাড": 8741,
      "লাস": 8742,
      "লালে": 8743,
      "লাদে": 8744,
      "লাহি": 8745,
      "লালটা": 8746,
      "লাখো": 8747,
      "লাগত": 8748,
      "লাগে": 8749,
      "লাফি": 8750,
      "লাঠি": 8751,
      "লাভে": 8752,
      "লাহু": 8753,
      "লাবই": 8754,
      "লাথি": 8755,
      "লাষি": 8756,
      "লাগল": 8757,
      "লাগাই": 8758,
      "লাগবে": 8759,
      "লাখই": 8760,
      "লাবণ": 8761,
      "লাতাতে": 8762,
      "লালন": 8763,
      "লাখের": 8764,
      "লাহরী": 8765,
      "লাজুক": 8766,
      "লাফানো": 8767,
      "লাবণ্য": 8768,
      "অনতি": 8769,
      "অন্যায়ের": 8770,
      "অনবধা": 8771,
      "ক্সা": 8772,
      "ক্পাত": 8773,
      "ক্ট্রে": 8774,
      "ক্লান্ত": 8775,
      "ক্লিষ্ট": 8776,
      "ক্লথ": 8777,
      "লেক": 8778,
      "লেপ": 8779,
      "লেতে": 8780,
      "লেনে": 8781,
      "লেখো": 8782,
      "লেজে": 8783,
      "লেখান": 8784,
      "লেজের": 8785,
      "লেটের": 8786,
      "লেপন": 8787,
      "লেছিলো": 8788,
      "লেখন": 8789,
      "লেজটি": 8790,
      "লেজই": 8791,
      "লেজটা": 8792,
      "লেশমাত্র": 8793,
      "লেবুর": 8794,
      "ক্ষর": 8795,
      "ক্ষতে": 8796,
      "ক্ষদা": 8797,
      "ক্ষয়ে": 8798,
      "ক্ষমার": 8799,
      "ক্ষতেই": 8800,
      "ক্ষণা": 8801,
      "ক্ষয়ের": 8802,
      "ক্ষতির": 8803,
      "ক্ষতই": 8804,
      "ক্ষতিতে": 8805,
      "ক্ষমাই": 8806,
      "ক্ষয়ই": 8807,
      "ক্ষতিই": 8808,
      "ক্ষতিকে": 8809,
      "ক্ষতিটা": 8810,
      "ক্ষীরাই": 8811,
      "ক্ষরণে": 8812,
      "ক্ষ্মো": 8813,
      "নাক": 8814,
      "নাতি": 8815,
      "নাভি": 8816,
      "নাচা": 8817,
      "নাড়া": 8818,
      "নাকি": 8819,
      "নাক্ত": 8820,
      "নামান": 8821,
      "নাপি": 8822,
      "নাবার": 8823,
      "নাসি": 8824,
      "নাকের": 8825,
      "নাভাবে": 8826,
      "নাচার": 8827,
      "নাসু": 8828,
      "নাচে": 8829,
      "নামার": 8830,
      "নাতো": 8831,
      "নাকই": 8832,
      "নাগে": 8833,
      "নাশী": 8834,
      "নামো": 8835,
      "নাকটা": 8836,
      "নাচল": 8837,
      "নাড়া": 8838,
      "নামী": 8839,
      "নামই": 8840,
      "নালী": 8841,
      "নাড়ানো": 8842,
      "নামাই": 8843,
      "নাচো": 8844,
      "নালিশ": 8845,
      "নাগের": 8846,
      "নাকও": 8847,
      "নাতিটা": 8848,
      "নাচন": 8849,
      "নাসিক": 8850,
      "নাসও": 8851,
      "নাটিকা": 8852,
      "নাবদ্ধ": 8853,
      "নাবিক": 8854,
      "নাচের": 8855,
      "নামানো": 8856,
      "নামান্ত": 8857,
      "নাড়িয়া": 8858,
      "নামেই": 8859,
      "নাসায়": 8860,
      "নাচাতে": 8861,
      "নাচুন": 8862,
      "নাড়তে": 8863,
      "নাগিনীর": 8864,
      "নাম্বার": 8865,
      "নাচুক": 8866,
      "নাগিনীকে": 8867,
      "নাআপনি": 8868,
      "নাজপুর": 8869,
      "ছিত": 8870,
      "ছিপ": 8871,
      "ছিকা": 8872,
      "ছিকার": 8873,
      "ছিপে": 8874,
      "ছিকাটা": 8875,
      "ছিদ্র": 8876,
      "ছিকাটি": 8877,
      "ছিকাই": 8878,
      "ছিপের": 8879,
      "ছিবই": 8880,
      "ছিকাতে": 8881,
      "ছিপটি": 8882,
      "ছিপই": 8883,
      "ছিপটা": 8884,
      "তিলে": 8885,
      "তিনে": 8886,
      "তিরে": 8887,
      "তিকের": 8888,
      "তিলের": 8889,
      "তিলই": 8890,
      "তিলকে": 8891,
      "তিলটা": 8892,
      "তিনটা": 8893,
      "তিথি": 8894,
      "তিনটি": 8895,
      "তিশয়": 8896,
      "তিমির": 8897,
      "তিনিই": 8898,
      "তিমিকে": 8899,
      "তিরিশ": 8900,
      "তিহাড়": 8901,
      "নিলে": 8902,
      "নিনা": 8903,
      "নিন্": 8904,
      "নিলো": 8905,
      "নিগু": 8906,
      "নিচ্ছি": 8907,
      "নিকের": 8908,
      "নিশ্": 8909,
      "নিলেন": 8910,
      "নিকো": 8911,
      "নিপুর": 8912,
      "নিদান": 8913,
      "নিধি": 8914,
      "নিকটা": 8915,
      "নিচ্ছে": 8916,
      "নিতেন": 8917,
      "নিরী": 8918,
      "নিপাত": 8919,
      "নিযুক্ত": 8920,
      "নিজের": 8921,
      "নিচ্ছিল": 8922,
      "নিকতা": 8923,
      "নিয়েছে": 8924,
      "নিচ্ছেন": 8925,
      "নিধন": 8926,
      "নিনাও": 8927,
      "নিয়েছিল": 8928,
      "নিবদ্ধ": 8929,
      "নিয়েই": 8930,
      "নিমেষ": 8931,
      "নিস্তার": 8932,
      "নিশ্চয়": 8933,
      "নিদ্রা": 8934,
      "নিভৃ": 8935,
      "নিজাম": 8936,
      "নিলামে": 8937,
      "নিখোঁজ": 8938,
      "নিক্ষিপ্ত": 8939,
      "নিছক": 8940,
      "নিলামি": 8941,
      "নিস্তব্ধ": 8942,
      "নিদারুণ": 8943,
      "নিউট্র": 8944,
      "নিগূ": 8945,
      "নিভতে": 8946,
      "নিমগ্ন": 8947,
      "নিকেতন": 8948,
      "য়াহা": 8949,
      "য়াজের": 8950,
      "য়াচ্ছন্ন": 8951,
      "য়ামিন": 8952,
      "বেদে": 8953,
      "বেচি": 8954,
      "বেচা": 8955,
      "বেমান": 8956,
      "বেঙ্গ": 8957,
      "বেলের": 8958,
      "বেচার": 8959,
      "বেটে": 8960,
      "বেলই": 8961,
      "বেটার": 8962,
      "বেদ্য": 8963,
      "বেলটা": 8964,
      "বেতের": 8965,
      "বেড়ে": 8966,
      "বেলটি": 8967,
      "বেনাম": 8968,
      "বেড়ে": 8969,
      "বেচ্ছা": 8970,
      "বেতন": 8971,
      "বেড়াই": 8972,
      "বেকারের": 8973,
      "বেনিয়া": 8974,
      "বেচাল": 8975,
      "বেড়ানো": 8976,
      "বেগুন": 8977,
      "বেকারই": 8978,
      "বেঙ্গল": 8979,
      "বেকিং": 8980,
      "বেঞ্চি": 8981,
      "বেচারা": 8982,
      "বেনামি": 8983,
      "বেড়ানোর": 8984,
      "বেসন": 8985,
      "বেহাল": 8986,
      "বেলটায়": 8987,
      "বেপল্লী": 8988,
      "বেত্তা": 8989,
      "বেঞ্চির": 8990,
      "বেসরকারি": 8991,
      "বেষবিষ": 8992,
      "লিল": 8993,
      "লিকার": 8994,
      "লিমি": 8995,
      "লিনী": 8996,
      "লিশে": 8997,
      "লিখো": 8998,
      "লিনো": 8999,
      "লিকতা": 9000,
      "লিতেছিল": 9001,
      "লিয়াছে": 9002,
      "লিটকে": 9003,
      "লিয়েছেন": 9004,
      "লিখাস": 9005,
      "লিচুর": 9006,
      "লিজোড়া": 9007,
      "পাস": 9008,
      "পাড়": 9009,
      "পাকে": 9010,
      "পাবে": 9011,
      "পাদে": 9012,
      "পাশি": 9013,
      "পাল্": 9014,
      "পাপে": 9015,
      "পাকাটা": 9016,
      "পাটে": 9017,
      "পাড়ি": 9018,
      "পালটা": 9019,
      "পায়ের": 9020,
      "পাটির": 9021,
      "পাশী": 9022,
      "পাকাটি": 9023,
      "পাতাই": 9024,
      "পাচ্ছে": 9025,
      "পাদো": 9026,
      "পায়ন": 9027,
      "পাবেন": 9028,
      "পাকাই": 9029,
      "পাটিতে": 9030,
      "পাপের": 9031,
      "পাশার": 9032,
      "পালাতে": 9033,
      "পাটের": 9034,
      "পাওয়ার": 9035,
      "পাশর": 9036,
      "পাগল": 9037,
      "পাকাতে": 9038,
      "পাঠে": 9039,
      "পাড়ার": 9040,
      "পাশালি": 9041,
      "পাটই": 9042,
      "পাহারা": 9043,
      "পাটকে": 9044,
      "পাপই": 9045,
      "পাপটা": 9046,
      "পাশাল": 9047,
      "পাড়িয়া": 9048,
      "পাকাটার": 9049,
      "পাঠিকা": 9050,
      "পাকিয়ে": 9051,
      "পাত্তা": 9052,
      "পাংশু": 9053,
      "ন্মুখ": 9054,
      "ন্নাম": 9055,
      "ন্ট্": 9056,
      "ন্মালা": 9057,
      "ন্দিত": 9058,
      "ন্সেফ": 9059,
      "ন্ঠিত": 9060,
      "প্রদ": 9061,
      "প্রাই": 9062,
      "প্রভি": 9063,
      "প্রথা": 9064,
      "প্রজন": 9065,
      "প্রভাবে": 9066,
      "প্রলু": 9067,
      "প্রবাদ": 9068,
      "প্রসার": 9069,
      "প্রভাব": 9070,
      "প্রজার": 9071,
      "প্রবী": 9072,
      "প্রবেশ": 9073,
      "প্রণে": 9074,
      "প্রফে": 9075,
      "প্রশান্ত": 9076,
      "প্রখর": 9077,
      "প্রশাস": 9078,
      "প্রয়ো": 9079,
      "প্রসব": 9080,
      "প্রবাসী": 9081,
      "প্রকৃতি": 9082,
      "প্রদেশে": 9083,
      "প্রবৃত্ত": 9084,
      "প্রমত্ত": 9085,
      "প্রবেশি": 9086,
      "প্রসাধ": 9087,
      "প্রখ্যাত": 9088,
      "প্রেরণা": 9089,
      "প্রচুর": 9090,
      "প্রতীয়": 9091,
      "প্রতাপ": 9092,
      "প্রত্যে": 9093,
      "প্রত্যক্ষ": 9094,
      "প্রবাহিত": 9095,
      "প্রভৃ": 9096,
      "প্রকাশি": 9097,
      "প্রসাদের": 9098,
      "প্রশাসন": 9099,
      "প্রশংসা": 9100,
      "প্রসন্ন": 9101,
      "প্রতাপে": 9102,
      "প্রশাসনের": 9103,
      "প্রচণ্ড": 9104,
      "প্রচলিত": 9105,
      "প্রকৃতির": 9106,
      "প্রজন্ম": 9107,
      "প্রহরী": 9108,
      "প্রীতি": 9109,
      "প্রচলন": 9110,
      "প্রজন্মের": 9111,
      "প্রভুর": 9112,
      "প্রোটো": 9113,
      "প্রৌঢ়": 9114,
      "প্রয়োগ": 9115,
      "প্র্রভু": 9116,
      "প্রলেপ": 9117,
      "কারণের": 9118,
      "কারণকে": 9119,
      "কারখানাই": 9120,
      "কার্তিক": 9121,
      "মাফ": 9122,
      "মাৎ": 9123,
      "মাটি": 9124,
      "মামা": 9125,
      "মাড়": 9126,
      "মায়ে": 9127,
      "মাজা": 9128,
      "মাজি": 9129,
      "মাসে": 9130,
      "মাসি": 9131,
      "মাপে": 9132,
      "মাদু": 9133,
      "মামার": 9134,
      "মাণ্ড": 9135,
      "মাতো": 9136,
      "মাটির": 9137,
      "মাঠা": 9138,
      "মাতাকে": 9139,
      "মাঝা": 9140,
      "মালার": 9141,
      "মাসের": 9142,
      "মাছু": 9143,
      "মাটিতে": 9144,
      "মাপের": 9145,
      "মাটিকে": 9146,
      "মামাই": 9147,
      "মাসই": 9148,
      "মামির": 9149,
      "মাণ্য": 9150,
      "মাড়ানো": 9151,
      "মাসেই": 9152,
      "মাখিল": 9153,
      "মাবরণ": 9154,
      "মালিকা": 9155,
      "মামারা": 9156,
      "মামাকে": 9157,
      "মায়ায়": 9158,
      "মাদ্রা": 9159,
      "মামিকে": 9160,
      "মাজিক": 9161,
      "মামাদের": 9162,
      "মাথার": 9163,
      "মাফিক": 9164,
      "মাফিন": 9165,
      "মাতানো": 9166,
      "মাানিত": 9167,
      "ভাত": 9168,
      "ভাতে": 9169,
      "ভাবা": 9170,
      "ভাসা": 9171,
      "ভাজা": 9172,
      "ভালই": 9173,
      "ভাতেই": 9174,
      "ভাতের": 9175,
      "ভাজার": 9176,
      "ভাড়া": 9177,
      "ভাতই": 9178,
      "ভাড়াই": 9179,
      "ভাড়ার": 9180,
      "ভাঙ্গা": 9181,
      "ভাসরা": 9182,
      "ভাতকে": 9183,
      "ভাট্টা": 9184,
      "ভাড়াতে": 9185,
      "ভাদৃষ্ট": 9186,
      "ভাড়াকে": 9187,
      "ভাতটা": 9188,
      "ভাজনেরা": 9189,
      "ভালুক": 9190,
      "ভাজাকে": 9191,
      "ভাসিয়া": 9192,
      "ভাজুন": 9193,
      "ভাজতে": 9194,
      "ভাবাটা": 9195,
      "ভাঁড়": 9196,
      "স্লো": 9197,
      "স্বার": 9198,
      "স্পে": 9199,
      "স্ক্র": 9200,
      "স্টো": 9201,
      "স্কতা": 9202,
      "স্খল": 9203,
      "স্মরণ": 9204,
      "স্নানা": 9205,
      "স্লেট": 9206,
      "স্নাত": 9207,
      "স্বিনী": 9208,
      "স্বার্": 9209,
      "স্মিস্": 9210,
      "স্ফুট": 9211,
      "স্শাশুড়": 9212,
      "স্খলিত": 9213,
      "স্বেচ্ছা": 9214,
      "স্মাৎ": 9215,
      "লোটা": 9216,
      "লোতে": 9217,
      "লোহার": 9218,
      "লোজী": 9219,
      "লোকই": 9220,
      "লোদর": 9221,
      "লোভে": 9222,
      "লোকটি": 9223,
      "লোজনের": 9224,
      "লোকারণ": 9225,
      "লোহাই": 9226,
      "লোকিত": 9227,
      "লোভী": 9228,
      "লোচনে": 9229,
      "লোজনদের": 9230,
      "াইকে": 9231,
      "াইতে": 9232,
      "াইলে": 9233,
      "াইজে": 9234,
      "চ্চ": 9235,
      "রিঅর্": 9236,
      "রিভাস": 9237,
      "রিভাসরা": 9238,
      "ত্বেই": 9239,
      "ত্কৃষ্ট": 9240,
      "ত্মিকতা": 9241,
      "গুহ": 9242,
      "গুতি": 9243,
      "গুনে": 9244,
      "গুহার": 9245,
      "গুড়ি": 9246,
      "গুচ্ছ": 9247,
      "গুজে": 9248,
      "গুণী": 9249,
      "গুটাই": 9250,
      "গুণের": 9251,
      "গুণকে": 9252,
      "গুহের": 9253,
      "গুণই": 9254,
      "গুলাকে": 9255,
      "গুটানো": 9256,
      "গুহাকে": 9257,
      "গুহাতে": 9258,
      "গুড়ুম": 9259,
      "গুয়াহা": 9260,
      "ত্রস্ত": 9261,
      "ত্রয়ো": 9262,
      "সাপ": 9263,
      "সাল": 9264,
      "সালে": 9265,
      "সাদে": 9266,
      "সামান": 9267,
      "সাজন": 9268,
      "সালের": 9269,
      "সাপে": 9270,
      "সাদার": 9271,
      "সাশ্র": 9272,
      "সামন": 9273,
      "সালই": 9274,
      "সালকে": 9275,
      "সাধি": 9276,
      "সাতের": 9277,
      "সাজো": 9278,
      "সাড়া": 9279,
      "সাদর": 9280,
      "সাহে": 9281,
      "সাজল": 9282,
      "সাপের": 9283,
      "সালেই": 9284,
      "সাড়ে": 9285,
      "সাথি": 9286,
      "সাদৃশ্য": 9287,
      "সায়ো": 9288,
      "সাধন": 9289,
      "সাপকে": 9290,
      "সাপটি": 9291,
      "সাপই": 9292,
      "সাপটা": 9293,
      "সাক্ষি": 9294,
      "সাপদের": 9295,
      "সাদাকে": 9296,
      "সাব্যস্ত": 9297,
      "সাদাতে": 9298,
      "সাবন্যা": 9299,
      "সাজুন": 9300,
      "সাধারণের": 9301,
      "সাজুক": 9302,
      "সামাজিক": 9303,
      "্যায়ে": 9304,
      "্যাণ্ড": 9305,
      "্যাদায়": 9306,
      "্যাপন": 9307,
      "্যাসী": 9308,
      "্যাকর্ষণ": 9309,
      "্যাতীত": 9310,
      "ড়ু": 9311,
      "ড়কি": 9312,
      "ড়ান্ত": 9313,
      "ড়সু": 9314,
      "ড়েই": 9315,
      "ড়খণ্ড": 9316,
      "দেন": 9317,
      "দেয়": 9318,
      "দেবে": 9319,
      "দেবার": 9320,
      "দেদার": 9321,
      "দেবো": 9322,
      "দেখো": 9323,
      "দেবেন": 9324,
      "দেখান": 9325,
      "দেড়ে": 9326,
      "দেওয়ার": 9327,
      "দেবরের": 9328,
      "দেখুন": 9329,
      "দেয়নি": 9330,
      "দেবালয়": 9331,
      "দাও": 9332,
      "দায়ে": 9333,
      "দামে": 9334,
      "দাসে": 9335,
      "দাওয়া": 9336,
      "দাদার": 9337,
      "দাবাদ": 9338,
      "দাড়ি": 9339,
      "দায়ের": 9340,
      "দাগে": 9341,
      "দামী": 9342,
      "দাসের": 9343,
      "দাহে": 9344,
      "দাগের": 9345,
      "দাসটা": 9346,
      "দাসকে": 9347,
      "দাদকে": 9348,
      "দাবীর": 9349,
      "দাগকে": 9350,
      "দাক্ষি": 9351,
      "দাসটি": 9352,
      "দাদীর": 9353,
      "দাপানো": 9354,
      "দাদাকে": 9355,
      "দাবীকে": 9356,
      "দাপিয়ে": 9357,
      "দাতব্য": 9358,
      "দ্বাদ": 9359,
      "দ্বের": 9360,
      "দ্বৈ": 9361,
      "দ্বিধা": 9362,
      "দ্গমদৃশ্য": 9363,
      "দ্বিগুণ": 9364,
      "ভিত": 9365,
      "ভিন": 9366,
      "ভিড়": 9367,
      "ভিলেন": 9368,
      "ভিটে": 9369,
      "ভিটার": 9370,
      "ভিসার": 9371,
      "ভিজে": 9372,
      "ভিড়ে": 9373,
      "ভিটায়": 9374,
      "ভিখার": 9375,
      "ভিক্ষার": 9376,
      "ভিড়ের": 9377,
      "ভিসাই": 9378,
      "ভিড়ই": 9379,
      "ভিসায়": 9380,
      "ভিতরে": 9381,
      "ভিক্ষাই": 9382,
      "ভিলাষের": 9383,
      "ষ্কে": 9384,
      "ষ্ণু": 9385,
      "ষ্মাণ্ড": 9386,
      "অনুজা": 9387,
      "অনুকর": 9388,
      "অনুজ্ঞ": 9389,
      "অনুযা": 9390,
      "অনুক্র": 9391,
      "অনুজী": 9392,
      "অনুমো": 9393,
      "অনুচ্ছে": 9394,
      "অনুষ্ঠ": 9395,
      "অনুরো": 9396,
      "অনুজীব": 9397,
      "অনুলিখি": 9398,
      "অনুবর্তী": 9399,
      "অনুপ্রাণ": 9400,
      "অনুক্রমে": 9401,
      "অনুসৃ": 9402,
      "অনুরোধ": 9403,
      "অনুমিত": 9404,
      "অনুকূল": 9405,
      "অনুপাতে": 9406,
      "অনুভব": 9407,
      "অনুজীবী": 9408,
      "অনুপাতের": 9409,
      "অনুপাতিক": 9410,
      "অনুশাসন": 9411,
      "অনুজদের": 9412,
      "অনুশাসনের": 9413,
      "অনুঘটিত": 9414,
      "অনুজীবের": 9415,
      "অনুতাপের": 9416,
      "অনুবিভাগে": 9417,
      "অনুপাতেই": 9418,
      "অনুপাতই": 9419,
      "অনুশাসিত": 9420,
      "অনুশো": 9421,
      "অনুগ্রাহী": 9422,
      "অনুনয়ই": 9423,
      "অনুতাপী": 9424,
      "চিনা": 9425,
      "চিতি": 9426,
      "চিকার": 9427,
      "চিয়ে": 9428,
      "চিতার": 9429,
      "চিরে": 9430,
      "চিলের": 9431,
      "চিকাটা": 9432,
      "চিলই": 9433,
      "চিনার": 9434,
      "চিলকে": 9435,
      "চিলটা": 9436,
      "চিকাটি": 9437,
      "চিতাই": 9438,
      "চিতাকে": 9439,
      "চিকাই": 9440,
      "চিতল": 9441,
      "চিনির": 9442,
      "চিতাটা": 9443,
      "চিনিয়া": 9444,
      "চিরেই": 9445,
      "চিনিতে": 9446,
      "চিতাটি": 9447,
      "চিনিই": 9448,
      "চিৎকার": 9449,
      "চিলেবু": 9450,
      "চিলতে": 9451,
      "চিনত": 9452,
      "চিলদের": 9453,
      "চিমটে": 9454,
      "য়েত": 9455,
      "য়েটার": 9456,
      "য়েমী": 9457,
      "মিত্র": 9458,
      "মিশি": 9459,
      "মিশা": 9460,
      "মিষ্ট": 9461,
      "মিজো": 9462,
      "মিককে": 9463,
      "মিকদের": 9464,
      "মিরের": 9465,
      "মিঠে": 9466,
      "মিলিয়া": 9467,
      "মিছিলে": 9468,
      "মিয়াছিলেন": 9469,
      "মিটিয়া": 9470,
      "মিস্ট": 9471,
      "মিলন": 9472,
      "মিজোরা": 9473,
      "মিশাতে": 9474,
      "মিটতে": 9475,
      "মিউজিক": 9476,
      "মিটমা": 9477,
      "মিঠাই": 9478,
      "মিথ্যা": 9479,
      "মিয়ানা": 9480,
      "মিলিয়াছে": 9481,
      "চাও": 9482,
      "চাকা": 9483,
      "চাকার": 9484,
      "চালের": 9485,
      "চাচার": 9486,
      "চাপে": 9487,
      "চালু": 9488,
      "চাকাটা": 9489,
      "চালই": 9490,
      "চালকে": 9491,
      "চায়ের": 9492,
      "চাকাটি": 9493,
      "চাচাই": 9494,
      "চাষা": 9495,
      "চাকাই": 9496,
      "চাকুর": 9497,
      "চালায়": 9498,
      "চালাতে": 9499,
      "চাচির": 9500,
      "চাকাতে": 9501,
      "চাঙ্গা": 9502,
      "চালিত": 9503,
      "চাষের": 9504,
      "চাকরে": 9505,
      "চাচারে": 9506,
      "চাষার": 9507,
      "চাভিলাষ": 9508,
      "চাচাকে": 9509,
      "চাদরে": 9510,
      "চাহন": 9511,
      "চালিয়ে": 9512,
      "চাপিয়া": 9513,
      "চামারি": 9514,
      "চালিয়েছেন": 9515,
      "ছেলের": 9516,
      "ছেলেই": 9517,
      "ছেড়ে": 9518,
      "ছেড়ো": 9519,
      "ছেলেরা": 9520,
      "গাব": 9521,
      "গালা": 9522,
      "গালে": 9523,
      "গালি": 9524,
      "গাড়": 9525,
      "গাহি": 9526,
      "গালের": 9527,
      "গালই": 9528,
      "গালকে": 9529,
      "গালটা": 9530,
      "গাভীর": 9531,
      "গাওয়ার": 9532,
      "গাড়ির": 9533,
      "গাড়িতে": 9534,
      "গাধাই": 9535,
      "গাড়িটি": 9536,
      "গাজরে": 9537,
      "গাজরের": 9538,
      "গাত্রে": 9539,
      "গাথার": 9540,
      "গাফোন": 9541,
      "গাজরই": 9542,
      "গাথাই": 9543,
      "গাাধারা": 9544,
      "কুটি": 9545,
      "কুলা": 9546,
      "কুলি": 9547,
      "কুজি": 9548,
      "কুণ্": 9549,
      "কুড়ি": 9550,
      "কুড়ি": 9551,
      "কুড়া": 9552,
      "কুলার": 9553,
      "কুলাতে": 9554,
      "কুলাটি": 9555,
      "কুলাটা": 9556,
      "কুরেই": 9557,
      "কুমরা": 9558,
      "কুড়ির": 9559,
      "কুড়িতে": 9560,
      "কুম্ভ": 9561,
      "কুকুরে": 9562,
      "কুকুরের": 9563,
      "কুড়ির": 9564,
      "কুৎসা": 9565,
      "কুসংস্কার": 9566,
      "কুঞ্জের": 9567,
      "কুট্ট": 9568,
      "কুৎসিত": 9569,
      "কুর্নু": 9570,
      "কুন্ঠিত": 9571,
      "কুষ্মাণ্ড": 9572,
      "কুমিরের": 9573,
      "জাগা": 9574,
      "জাম্": 9575,
      "জাগ্র": 9576,
      "জামে": 9577,
      "জাল্": 9578,
      "জালের": 9579,
      "জামার": 9580,
      "জালকে": 9581,
      "জালটা": 9582,
      "জামের": 9583,
      "জালটি": 9584,
      "জামটা": 9585,
      "জাতিই": 9586,
      "জাতিকে": 9587,
      "জাতিটা": 9588,
      "জামটি": 9589,
      "জালির": 9590,
      "জাওয়ালা": 9591,
      "জাঁকি": 9592,
      "জাগিয়ে": 9593,
      "জালটায়": 9594,
      "জাপানের": 9595,
      "জাফর": 9596,
      "জাপানে": 9597,
      "জাঁকানো": 9598,
      "জাপানি": 9599,
      "জাফরান": 9600,
      "হাল্": 9601,
      "হাড়ি": 9602,
      "হাতেই": 9603,
      "হাতের": 9604,
      "হাতির": 9605,
      "হাড়ে": 9606,
      "হাতই": 9607,
      "হাড়ে": 9608,
      "হাপরা": 9609,
      "হাতিই": 9610,
      "হাতিকে": 9611,
      "হাসিত": 9612,
      "হাজির": 9613,
      "হাপরানো": 9614,
      "ঙ্কর": 9615,
      "ঙ্কের": 9616,
      "ঙ্কুরে": 9617,
      "নেন": 9618,
      "নেয়": 9619,
      "নেয়া": 9620,
      "নেবে": 9621,
      "নেভা": 9622,
      "নেশা": 9623,
      "নেমে": 9624,
      "নেচে": 9625,
      "নেয়ার": 9626,
      "নেতাই": 9627,
      "নেবই": 9628,
      "নেশার": 9629,
      "নেওয়ার": 9630,
      "নেতারা": 9631,
      "নেতাও": 9632,
      "নেপাল": 9633,
      "নেটর": 9634,
      "নেতাকেই": 9635,
      "নেয়াতে": 9636,
      "নেশায়": 9637,
      "নেবানো": 9638,
      "নেটিভ": 9639,
      "নেশিয়ার": 9640,
[...]
